01e0
03e5
ffea
01c5
016f
fd70
fbf1
ff84
fa4c
01e9
044c
007d
009b
00e1
01b0
fe4b
fd9d
0181
ff0f
0122
fd4b
fbfb
fee8
049a
045d
fa93
028e
fffe
ffe8
056d
0431
0564
feda
fd5e
fb98
005f
fe59
0366
fd6e
0298
045f
041f
fde9
0329
ffdd
00d5
0127
fd5e
0095
ffcb
fdb8
fcbb
0578
fffc
ffb5
0121
fcd4
0004
02bd
001e
0197
fc0c
00d4
fd2a
fb29
ff86
059b
fea4
051c
fd48
fc73
0034
030c
03eb
fffe
fef4
ff66
fc15
045f
038d
005e
0386
0377
03a1
0222
0016
fe4c
fe8c
fc22
045a
fd3f
0422
000b
ffc4
fc32
04a2
fce8
fb12
034f
000c
ff38
fe4e
ff0d
02d2
fd55
03ec
fddb
fbdc
fa77
fbf9
fc6d
ff0a
fed3
027f
00e2
fb51
05d3
ff00
fede
0031
00e6
fffa
01de
fd50
ffc3
0166
04a6
038c
fa0a
03f4
0297
fee0
0503
fc73
0290
0150
fe29
03fe
02b0
fe4b
0559
03db
feb3
fd5f
fda7
ff92
fecd
fd26
fb43
0047
036a
00ff
02ab
fd43
fca5
fd45
ff29
0008
fd9b
038f
ff03
03e2
042b
01ae
040e
ffd9
fdbc
00ac
0265
ff08
fedb
0022
03e3
0341
fb54
03c4
fc11
fe9c
0012
fe69
fc30
fada
fd59
03b2
fe55
0185
fcf2
ff3f
fe03
fdf6
fecd
03f1
fe2b
02ea
02f2
ffd7
fe33
05a9
0312
043b
fb2e
fb12
ff78
fdaf
0012
0546
0409
fa15
fc5c
fece
fe20
fd66
fbbd
ff0f
fec9
fb9f
fbec
ffa0
001f
02a1
0443
01c9
0089
fc66
0032
fc70
fd39
00e7
053e
fe14
ff99
03d3
fd0d
fdd1
0021
fc81
fcf7
0213
044c
fcd9
0433
ffc7
0366
fdc0
03e1
fdfd
fd48
0274
fbc9
fc74
fe4d
fd90
008a
fc70
fda2
fe7d
018b
fb58
0501
fcd3
fc82
fe60
008e
02b0
f98c
fab5
ff22
fbab
0088
fd2e
fda1
fcb4
fa44
0397
fef4
0079
ff4c
0241
0556
feeb
ff37
007c
01dd
ffe3
ff66
fda6
fc55
034f
fcb0
0015
ff8c
ffd2
04f4
ff24
05d9
fcce
018f
02dd
fc05
fbbf
fa6e
fd18
ffcd
ff0b
0005
0005
015b
ff67
020c
00ee
fe82
036d
0145
040e
0367
006e
fc73
0360
0358
fc70
0302
fe9c
02d5
02b6
03f2
00c3
02dd
fe31
ff7e
01f9
fca2
0456
fee7
feb6
0078
fc59
fdcd
fe3c
0291
00b6
03f6
fd88
fd1e
fd6c
fc88
fc6a
022f
04df
0357
048e
fcea
00ac
fc24
feca
fe6f
fbc7
01fb
039a
04b0
fd9d
002b
fc13
0092
0203
fc1c
004f
00d6
03db
0016
fac8
faaf
fa2c
ffc0
ffd5
fbc5
ffb7
019c
05bf
fb66
fd19
020b
0421
0003
fdaa
fbae
fbac
fd22
047b
fc44
01dc
016b
fc20
fecd
fe26
0055
01f4
043f
fdde
03b7
fe34
fc95
02ee
fbc4
009a
fa70
0130
fd2d
fd63
fe0d
fcf8
0164
ff5e
fd54
0013
fbb1
03a4
fb59
fcc5
fa74
014f
fd33
fbfc
0379
fe10
0111
fe13
001d
03e8
0363
00a0
fbe4
0081
fdd5
fb5b
03f5
fb49
fe61
ff5a
fd9a
fbeb
0050
0126
fbaa
fe1b
ff32
0423
0207
0054
fce6
ff8e
fba1
00ee
0406
022e
fec3
00bf
038a
00a5
0116
fd5d
0290
046a
fe6b
fba1
ffef
014d
ff2c
0283
fd4e
0220
ffb5
0511
fed5
0374
0207
ffd6
ffc0
fbd0
0261
0124
03d9
fee4
ff9e
028f
0492
0157
0493
fd43
fb1c
fd21
0403
0029
0342
fdf8
0199
ff85
0369
fc1e
00ca
fd51
fec9
fa99
fe17
048f
ffc6
fd79
0315
ff93
058e
fee8
020c
fd2f
0018
0350
012e
02fc
ff20
fe69
018a
fcc8
ffc3
035c
00a3
058b
fddf
fe2f
faee
fe42
0107
036e
fca2
fa86
023a
02b1
fe5d
ff27
0096
fef4
ffa2
0541
057d
ffde
00dd
fd48
fc38
fc60
fb6b
0507
fec4
0327
0598
ff2a
ffe1
034c
fe25
fcd4
fb76
fd47
01f4
05af
0230
038d
fe58
0319
0065
03a3
fd24
ff13
fbdd
0531
012f
fb4d
04d4
00ae
02b3
fc1c
fd11
00ed
fc66
fe31
0382
0211
fd8a
fa62
f9e3
030f
fd4b
02fc
fd9c
01c2
0105
ff3f
fb19
026f
faeb
fd8b
013d
fd6f
fd6e
ff45
0400
fe6c
fbb4
fc39
048c
fd0b
ff64
042c
0449
02b6
fb66
fc18
fd55
ff5d
02e6
0336
fbdb
00ee
fe27
024f
fa8e
0193
fc3c
0480
01d5
01e9
ffb4
fc5d
02dc
fd6a
fe08
fcf6
fa8e
fd71
fedb
01e5
046e
01e2
fdd3
018d
0225
fd00
02fa
015c
01a5
0246
0012
03db
fa15
03f5
ffd9
05e1
0576
058c
0309
fd1e
01d7
fab7
fe31
02e4
0447
fe94
041b
fc58
04a4
02fe
0126
fe4f
048e
05a1
02a1
029d
02b6
037d
0225
ff0d
022b
fb41
0172
faf4
fe53
fa96
fea9
ff3f
fa29
01cb
fd41
007a
fde5
03be
fd11
faa8
00ec
fe33
052c
027b
fe76
03b7
03b8
03bd
018f
ff85
069c
fa67
fc13
fa82
fc9f
ff69
fe11
0357
0282
fdb2
f97d
01af
fb02
0597
fdb7
fc14
009e
0353
02b4
fdc7
02f3
040d
0355
019c
0364
fecf
0019
0404
0493
0517
0177
02e1
0179
0493
01a1
fc7a
fc30
ff7b
ff41
042b
0302
0000
fdaf
019d
0123
fef0
fadd
fe85
fb7a
0255
ff34
ff7c
024d
fe11
059f
fe3b
fcb1
0270
ff27
0476
0473
03cf
034b
00be
04cf
0075
fd0d
fb7b
052e
fba6
0587
0197
02d2
fae1
ffdd
01ac
fb9e
0565
014f
05ae
fe78
fa8b
00d9
024b
0190
fee3
fb00
fece
00fc
029d
02ec
0265
fb9d
00a1
fe8b
ffdb
0484
0348
032a
fa36
fcac
05e1
011d
0272
04cb
ff94
0363
0041
001a
fd4c
fa5d
005f
0404
02eb
fb29
0297
0143
037c
01ab
01af
0322
ff97
0436
00e6
0032
02f5
0483
ff1f
fdb3
00e9
01ff
016e
04eb
fd10
fe81
00e3
fe14
00ab
fc64
fbf9
fb5e
026f
02b9
ff60
fef7
fc48
fe70
fcc3
faca
feed
fbe3
0395
03c3
fef2
017b
02e6
fb00
0304
011e
034e
ff02
04cf
feed
fe5f
03b3
047d
04ec
02e3
0446
fca3
035d
01ce
0113
fd33
fb9c
fb20
fb4a
fd5c
fee9
fe9d
0196
0099
04e8
fa2d
fc5c
05cd
fe9c
0177
0290
00e9
053c
fdde
003f
fa10
fb07
037f
042d
fe14
038c
042f
02d5
fbdf
0075
02b5
0005
0362
fd74
03c9
ff79
fe65
fe76
fec1
02f0
000f
0051
03b8
033b
00fa
016d
feb5
029a
0586
ff8d
006d
05df
03ef
fc8c
fe3c
020e
fe4e
ffcd
0263
02aa
00fd
fa2e
0278
0330
fa62
fffc
02cc
fe8f
fe8b
fadc
fe40
fd17
fb82
0443
044d
0390
fe45
fc2f
fe56
00a3
0288
fb9a
00c3
fef9
fe52
fa87
fce9
0562
022a
fd61
fcae
fd38
0259
ff5b
fc6b
000f
0174
ff07
0464
ff7c
01ac
015f
ffd6
ffde
ff31
fbed
0241
ff22
003e
ff9e
fe49
ffda
fee6
fc7b
003d
0036
0400
0407
03b5
fb26
05bb
040f
0263
0178
015f
0151
fda3
05c1
ff18
fe5e
fbb2
ffc6
031d
01cc
004b
02a2
fb4f
030d
fed2
02d7
03b0
011a
04d7
0284
0426
02b7
02e2
0256
02fe
fbc6
ff19
fd07
0417
0361
0005
02b2
047f
ff2e
faa5
faff
0225
fe38
0336
041e
fecd
042b
00ab
fcf5
fc5c
0372
0035
ff09
ff2d
0268
048d
fdc6
0096
ff02
02ae
ff65
fce9
fad2
fcc2
02f4
00de
fcc4
fed9
0067
fa4b
fcd2
00ed
035e
fa3c
fbd4
02e4
fd46
029e
03e2
0045
fee5
ff9f
027e
005d
ff2a
fd10
fd97
00de
fcd6
02de
048f
fd29
0099
0375
fb61
016f
ffb3
02a9
ffd8
0405
fbf8
03f2
fe92
fb5a
ff49
fbb9
0097
fe12
0305
02a8
fd4a
0291
01fa
ffd8
003c
00a2
04d0
01db
02aa
03e9
021f
fbd1
fcea
fdd8
01c7
03a1
ffc9
0223
fb9f
03fd
00e2
fc9b
ff60
fe31
ff5d
01ff
0013
fdb0
024a
fc46
01ec
fcad
0475
fabe
fde6
fe9e
fe05
0224
013c
0165
fad7
0419
fcf1
ff87
014d
ff5b
0465
fa4c
fb1b
0303
fda2
fcb3
ffe4
ff0a
ff1e
0363
feec
02f1
fd61
fc07
019e
fc61
fc55
fb6c
028e
0066
02cd
03bc
046a
05f8
fd8f
fbff
fca4
0239
fdf2
00de
fc34
038c
04dc
0026
fb02
021d
0084
fe65
02f0
fcb2
0289
fbe4
fa5a
023c
fdf7
021c
ffa7
ff84
01a1
ffaf
0494
02ed
0062
0459
ffbe
fec4
057c
041f
01d8
fea4
fa36
ff70
0059
fa8d
06fb
fa8c
fa59
fb37
fdd1
051c
0003
ffcb
fea6
fe01
0172
fd40
0063
050a
fce0
fe4b
fc08
0408
fa5f
0331
0042
0069
fec7
02e0
0585
0028
ff94
0012
fb7f
ff4a
02d0
00f5
fba5
fe89
fceb
faaf
021b
fec4
04c0
ffcd
00a0
fe75
0218
fea2
feeb
fc59
fe6d
029d
fc50
fca2
00a5
009d
fa2b
0007
019e
feea
fc7d
feb8
fc0e
ffef
fa4b
fe6d
047c
0065
0756
fddc
01ef
02c8
00fd
fc4b
03fc
fead
01c3
02d1
fc3e
fbe0
03d7
fe76
01b8
fe87
024e
fc70
fe97
02b7
01f6
01a4
00bf
ffef
fcd7
0318
0572
01ea
fe4d
0424
01b5
fcd0
00f3
0001
0096
0133
fc60
feb9
fc25
fc05
0225
fb47
007e
0353
00ab
fe5d
01d9
01d5
fd22
0013
fd08
03e1
03e7
03a9
009b
0169
034a
01a2
030a
02af
fcd3
fe6b
04d1
fd0e
fe7b
0088
0206
fa88
018b
0407
047f
01ad
0282
fde2
ffdb
fc63
040e
fbd7
fbf2
fc43
017f
fa12
fa69
0042
fdcf
fb88
0363
0511
0286
ff5b
0267
ffcc
fe15
0230
059f
fc43
fccd
05c8
02b3
039b
fc3f
fdd2
fce7
fd78
00f4
0468
fc32
ff69
01d3
fdfd
fb8c
fba5
fd0a
055e
fd92
fb15
0271
ffe9
fc2a
003f
ff23
05b9
fe42
026d
ff88
0452
ff2d
0000
0403
fa28
0081
0281
0397
04a6
00a4
050a
fc62
0289
fe14
fb73
fe45
fec0
000d
fd9a
034e
034e
fe0c
0406
01b9
fe3d
ff30
050b
03da
02a3
ffb6
027c
fd8d
0093
fd72
fdca
fba8
02ec
fcf0
fd17
ff5c
02e9
024e
01d6
fd30
ff58
ffae
0154
fbc9
0401
fc53
03cf
037a
fe12
003a
01c1
fdc0
fa2e
0017
fded
0498
001d
fac5
fdbc
fb66
fb6f
036e
0106
01fe
0216
ffcb
0217
0594
03f7
ff54
009b
01a6
037c
fa14
fd23
02a5
fc27
0413
057c
fa5a
0036
0464
ffb9
fc16
fc61
fabe
0449
ff54
054d
04e9
fbfe
02e9
034e
0236
03b4
fbc5
fe9c
ffd8
fdb9
018e
fe34
fed3
fc65
fcc3
00f3
0454
fa5e
0412
01bb
ff05
0385
fba0
fc76
fb9c
0321
fcd6
fc0a
0542
fba5
0152
0225
fd1f
fc06
fcbf
04a2
03cf
037f
05bb
fa2c
fae7
ff54
0080
ffb8
0096
041d
fcec
fc4f
022b
fd06
fda6
03e9
0112
015c
0072
ff79
0147
007e
00be
017f
fd7f
fe07
fddc
0566
0097
ffdc
0161
02ce
00bd
fd03
fea7
0450
03d2
fd7d
fd35
03af
0196
044e
ff92
032f
ff97
fc0a
05c1
fcfb
006e
fd0d
fea0
fb9c
0231
ffa4
fb07
feb8
fd31
0302
0281
fee8
fb6d
021e
fffb
fbd7
ffcc
febb
fe85
fd3d
fb1e
fdac
041b
00d6
fe5e
02d3
fca3
ff62
00a5
fa90
0158
0363
fbab
01ea
ff7c
fc27
042b
0348
fed7
01bd
fa70
03d0
0138
024d
0365
012a
faf2
fedc
0483
0487
fd8e
0048
fd9c
faf4
fea5
026f
fcf7
01c9
fc75
fb24
01c5
fd78
fc43
feff
fe67
0042
fc28
01ea
00ab
0058
fc00
02d1
fb99
fc8c
ff58
fd00
00c3
fecf
0360
0555
fe07
010b
fed2
fdd5
ff31
02e8
fd2f
fe77
fce6
fecb
0280
ffeb
fb5d
fbd8
015e
fdba
0506
02c5
00c6
ff68
0008
024f
00bc
026d
02c1
03b5
ff08
0452
05d1
faac
00d5
00bd
fb52
fc63
ffe1
0499
0364
fb11
fcd1
059f
0173
fada
0263
feb6
012e
feaa
fd1d
faa5
01b7
fc50
02c4
037e
ff6d
008c
0300
fa0e
008c
0002
0346
0513
ff35
fed9
feac
ff5f
02f0
00e7
064c
ffc5
0255
fafc
058a
ff2c
fd20
0259
0184
00c5
01ca
02f6
ff0e
04a2
ffa4
0326
0232
fb64
fa8f
fb70
fe31
fdbe
fac3
00e4
054f
fd5f
fe3b
0175
004a
018e
01f4
fcf3
03ef
00d5
fd9a
fd16
fd2f
02ce
fc31
fc67
ffc2
fff6
fb7b
ff8a
fef7
02a6
fab1
013b
ff58
00a2
0472
fa76
045c
0075
04ee
01c8
0186
0266
0264
0125
02ca
fc35
0463
0220
065b
fcbb
fba2
fdbc
fe83
fd36
0130
0240
05e9
fb2d
0179
fa88
00a7
05e2
02a8
0070
0416
fc8f
fbc1
fc62
04c9
0236
0179
0114
feda
fd20
0062
fd47
fb8f
0202
0040
ff13
0353
0042
fb12
fee2
fddf
fc21
0227
fcad
00b8
041c
fdb6
fb21
fe07
fcbf
fabf
01a9
fbd2
00a5
fecb
fcf5
00dc
fb4a
ff96
fd36
fc8d
ffdb
02fd
010d
001d
020b
011d
0161
fdbf
01dc
fe26
02df
ff34
ffe0
0468
fcb7
fbfb
ffbf
0289
fadb
000b
02c5
ff6e
030e
fe3a
0155
fee8
fe11
007f
fefe
0318
0561
ff54
054b
ff28
041b
0278
01d4
fe16
ffd8
fb9f
041e
fd71
fc28
0043
fc14
fcd7
01f8
0326
0257
004a
fa8c
00da
039a
fbf8
0314
fd1e
03e3
036e
00e0
0281
ffef
0254
fa59
0137
0458
03b3
029e
0451
04f0
fcca
fdcb
0788
fa5d
0203
00df
0523
00e4
02d5
fec9
ff0c
00fc
fef6
fdfc
feb9
05bb
05d2
fe81
fcab
0358
ffd8
014a
fd04
fd44
03e8
fcd7
fda7
0513
0197
ff65
00af
047d
0160
ffca
021d
026e
0243
02e2
ffcd
ff8f
054f
03eb
0290
fad4
00c0
ff3b
fc63
fa15
fce1
fd40
024d
fbae
0032
fd1c
fdb7
fce1
053e
fa6f
fdac
02c5
fd12
fc8e
fc3b
00c8
02af
0102
0016
012e
0036
00fb
017d
fdc0
fe63
fed4
fc07
ff7d
ff37
0461
02a2
fffa
fe39
fea0
fb82
fd71
026d
fcbd
fd78
03fd
0026
fc09
fcd8
002f
ff0b
0169
03eb
0166
fbee
0001
02ae
000e
fbee
00cc
fc78
02fd
034d
fa79
0552
fa36
0164
03d9
038a
028b
01ea
fbc4
fac8
00af
facd
fe82
ff65
fe89
013f
01f9
fd83
02ed
fe47
05d8
fed6
00e5
03b5
00fd
0755
01ad
fa6b
fef8
0487
fcc1
0176
0369
039e
fd86
fc0b
ff3f
03cd
fcb0
003f
01d8
fa69
fa94
fe17
ff1f
0365
fee8
00dd
0559
0160
0395
045f
ffbd
fc09
fda8
04a5
0484
0036
01c3
fea3
fec8
0093
01b3
03d5
00d4
ffcb
0139
fd93
fb1a
fcdd
03a3
0015
fa77
fe20
fcf8
fe63
0111
fe18
fc8a
fdea
0114
04ce
014f
017c
fc7d
faf4
01a3
fbab
fbc1
fecf
fb8b
fe86
fb4c
0231
fec0
032e
0521
02bc
fdcb
f9c0
0133
0227
fdfc
02fb
030d
fd3c
feef
ff33
00ed
03cc
033f
016f
05df
015a
fdd6
fd6b
00fa
004f
03e4
ff40
00f5
05e9
ff84
fbef
0312
fab9
0398
021c
ff1e
0206
0382
fd6d
03a6
0046
ff34
fc95
03fe
022d
01fc
02f7
fed3
0063
fd8f
02ed
fe26
fdf2
fd22
03c1
036d
fbbd
036e
0590
fafc
02d6
03b1
02e9
0271
fd00
0524
ff3e
fd2f
03ab
fcdf
0182
fe4e
ff41
ff99
0288
01d0
0075
fdf4
0314
036e
fac5
fe1a
fd6f
0554
002d
0252
0018
014e
01a3
fd9e
02bf
0483
fe6e
0253
ffa2
00e9
fc45
fce3
fdde
fd85
05e9
004e
0004
000f
feab
fa64
fdd9
fe38
0115
fe2f
0458
02a7
fd2c
00f4
0343
01ff
04bc
0181
03c4
0576
fcfb
ffba
fbf2
fd27
0086
ffc9
0391
02c7
fe53
0146
0273
044b
0239
03de
f972
fa73
027b
02c1
026f
0058
0158
00e6
ff2b
0015
fec6
fda3
ff72
04d5
0215
0319
05ba
fb48
01d8
04cb
ff28
0501
fc35
045f
fbb3
01c5
018c
035b
fe0b
fbe2
0538
02ae
ff59
001c
027f
0229
fddf
022f
fce9
00e0
fd28
0009
02a6
041c
ff88
fdce
fe2b
01a9
fa23
029a
fe74
01bb
0561
ff06
0601
fdc7
00f1
0091
fc6e
00ca
0548
fc30
0589
fcf3
f9ae
025d
029c
fd41
fef2
fd9c
fc2c
02fb
fa4e
0220
002a
fd49
03de
02cb
0140
0488
0574
011a
fb86
0047
fd51
03fe
fc93
03bc
fe53
fd44
fcb9
0102
0321
0199
fba5
fb56
0135
0377
fd16
03d3
ffd5
fc07
016b
fcf4
03b4
047a
007d
02ea
0051
008d
0490
fc09
fef3
03d3
fdca
02fc
0219
feb7
fd89
fc58
01a4
016b
00d9
0358
fd8b
fc9b
02db
fc95
fa62
034c
fe87
fe0f
ff9a
fcfb
0369
fdaf
009e
fc5d
ffdf
0128
0075
034c
052a
fcb8
02fb
fe4e
020e
03c7
0370
03a1
fde4
fda6
fe64
fc94
fd4a
03e6
0461
fcea
050e
fedf
016b
fc03
0397
ffd1
0100
febd
fcec
fde2
0251
fd11
03ee
018b
fc71
fc8c
04de
fcab
02b7
036a
fea8
fc1b
023f
ff73
03dc
00f4
00fc
03d5
fc1f
fe66
ff40
05a2
0330
fe85
fe4d
fba4
040b
05e0
ff0b
03d2
fe38
fc18
fbdc
fbe5
00c3
038b
02d2
05b6
fe57
059e
fc2c
fc89
faf6
fd2e
ffa0
fbe3
ff7f
04e7
0248
faa1
0070
0587
0170
fddf
020b
00d6
fa0e
fac1
003c
0134
fd47
012f
0167
ff20
009b
045d
02fc
0266
0134
024a
02c1
023d
fb75
0580
fa42
025f
0173
000d
04f2
007d
019d
fb34
0323
00d8
fb97
0298
050e
fdb3
fcfc
0025
ff89
000b
fde9
013d
018d
0092
fc1e
fa18
fd5d
0007
012e
012c
fbcd
0087
fec5
fd76
03bd
ffa2
00e8
02b7
03d8
fd3c
0217
01a5
0012
ffce
010d
fb72
02ca
01a2
007f
faba
fc15
fded
ffe8
ff97
00f9
017e
028a
0108
fd82
01b7
ff92
fce9
03e3
0206
fc4e
01f2
fb56
0511
046a
013d
04a3
fcad
fd8c
0079
02fa
04d3
fc78
0379
0424
029a
fb09
042a
0261
01ab
fead
0004
0233
00d5
fcaa
fa14
ff86
0099
04a2
fe09
01f1
fc9f
02b1
ff8b
fdbf
045b
0039
0405
057b
032e
00fa
fdaa
ffc2
05e0
04b0
035a
0014
fbf7
ff57
fafc
01e9
fa84
fdd3
ff55
fa64
0300
fc44
0414
0200
fc78
033e
013d
011b
fda5
fa94
fd1f
038d
fd22
fd9a
fcde
ff94
01cb
fb33
042b
0508
054b
fdcb
fce8
05cd
fc7e
fb78
feb5
041d
0532
00cc
0444
fc50
fffa
fcf7
fa2e
fb3a
fc4d
fd5d
fe25
fce0
0361
05af
fdd8
fd16
02b9
fd31
02b5
0244
fbf1
fe16
fcef
fd08
0504
0073
0031
fbbc
fa70
02ea
fc96
fc95
fa7e
faa1
005b
038b
04c1
feb1
044b
00a5
0021
003f
fb60
fe6a
037a
0199
01f4
fa33
0535
04c4
03d3
059e
fe49
fc31
fb27
fffd
0306
0097
048f
fbb4
fce6
fea1
fe87
fff4
03e2
03d1
0518
fa42
045a
fbd6
0181
fdbe
0138
03ef
05d4
01e7
000a
fd6d
03b5
fd9e
fdae
00ec
fbcc
0484
0097
fb01
02c7
fa5a
ffb1
fe01
03c8
00e5
ff3e
ff02
01f6
ff91
0010
fb26
0052
026c
fec2
fe0c
00f5
fdb3
0364
febb
fd1c
0565
fe67
02c4
0398
ffa4
03ba
fea5
01f6
fff7
fccc
0226
00c7
fe45
043f
043f
fbb9
01ad
ff5f
fab4
0214
0379
05e5
007f
049a
0229
01b6
fba2
fe42
0020
fa42
02c4
02c7
0016
015d
fc75
ff56
03bd
fd72
035d
fecd
fc46
029e
fb70
0278
fc83
0273
03fe
fdec
0227
001c
001b
fb62
ff35
fb6a
01bc
fb31
fccd
ffce
0170
fcbb
0428
003f
00ab
fd3b
fce9
0467
0207
03fc
00ac
ff4b
01e7
fac0
06db
0187
fc68
fedd
00fd
03de
03f2
fbee
fe2b
0414
0272
fb67
0045
0359
fdb7
02bc
fb74
ffc2
fe0b
fbb6
fdf8
ff22
fd7d
fe67
fd99
03e5
041c
fd4a
fbbc
fd4e
04df
ffb6
fe6c
fe95
fe86
fcbd
0220
028f
ff1f
00c0
0423
0322
02ff
fc5c
fcc5
0188
fd80
fac2
02ac
0397
0167
01fc
0046
feb1
0414
fade
05e0
fcd5
0225
01df
fb73
ff0d
054f
01d8
fef2
021b
fd1c
fbc3
fd85
ff59
ffd6
fb97
056f
0237
fc4f
fa7f
ffd6
fc60
fdf8
0091
fa90
fbb9
fffb
00c1
00e6
002a
0435
fdce
0006
01f7
05ea
0245
00fe
fc90
045a
0504
fc89
01f0
fa83
fd3d
fc73
ff55
0132
03fe
0152
03b0
ffa0
0304
05ab
ffb2
021d
01ab
fdb7
034b
047a
fc23
00e9
fabd
fca5
041c
0081
ff04
fedb
fbaa
00fe
01da
fd0b
fcf3
06af
0136
fa09
0132
048c
fbdd
0344
02aa
fcfd
fb32
fc3d
fe74
01c5
fd7a
0434
02d6
fabc
02a8
01a3
fb74
04ae
fccb
00e4
052c
ff9a
0132
fd52
02b1
fe57
fe61
02cd
05cf
0023
ff05
fff5
ff09
fb02
047f
ff38
fcad
01c6
fcd7
01c5
fa47
05cd
fab6
fcbd
006f
fdbb
fb8d
ffd0
039d
fd3b
ff5b
fc74
0212
ffd5
005d
030c
fd78
fdb4
021e
0372
fdad
0291
fbd4
fdd5
027c
fbaa
01b9
ff28
fddd
00f6
fd62
0096
fa75
fc3c
fced
fe59
03fd
ff5e
fc22
fa52
fd6a
0123
00ad
009e
0515
032d
fe02
fe74
023e
028b
fece
059c
ffce
fcd8
fdb6
0468
02d8
0462
0589
046d
fe14
fc43
fa30
fce3
fedc
0423
fb50
fef2
fc3d
03f3
0077
0306
fec9
03b5
fda2
fe79
fe73
fe97
fbae
fb11
fbcb
0422
03cc
010e
fcae
01d2
fbe9
00a6
0223
fe32
04a2
0234
036a
05cf
0393
fb70
fce4
02b1
fbef
fd03
fbde
0256
fe0d
020f
fd70
0161
03d7
023a
057e
03dd
fc51
016d
fc01
fcb9
00e1
02ba
0443
fdda
036e
01a0
fd41
000c
fdc1
fd08
fbb2
008d
feaf
fa54
0290
02ea
ffd4
02c2
feff
fd22
0352
ff8d
02f7
0111
0302
01b6
fb59
01ad
0146
ff2e
02a8
019c
053c
0281
02e2
0792
ffbc
0309
fdfb
03a7
fbfb
034b
0244
05b4
fb86
ff74
fe7b
febf
009c
0365
04d7
0434
fc89
fe2d
ff0c
fb4f
03a7
fe0e
010f
01fa
02c9
0336
ff97
fdef
0580
ff8b
fdc0
0173
01e4
fa32
fdda
fa6c
03fe
039d
fa13
fcac
0395
0367
0406
0083
fcb5
fbf1
fb6e
fbd4
01b3
fb86
fe77
02ff
fe6c
0474
035b
fc16
0388
fdb9
0274
0238
fc5c
01dc
fc15
0223
fe7e
0160
fc93
010f
04d1
fdcf
04a5
fba8
0153
f9a2
fb75
007b
0464
fd84
ff88
0311
faf1
005e
fc59
fca7
f9f5
00c4
051d
014a
0010
fc5e
017f
0320
01d9
038c
ff3a
fff8
03f6
01ad
00db
fa41
04fa
fc38
03be
04aa
011a
00fa
038d
016f
ff78
00d0
fe01
0444
0407
04b4
fd48
fdbc
ff6f
00ec
01eb
05de
febb
fe84
0124
fd4a
ffd2
fc02
fb7a
0543
fc10
facd
fbfe
fc00
0106
01ec
ffee
00b4
fbfc
00b6
fe56
fc41
00fd
047c
02bb
02a9
02ba
0358
fa3a
0036
0365
025c
fbdf
0377
fcbb
00f4
03f0
fb0c
01f5
05a9
0466
fd81
fced
face
0438
fc63
fe0f
0147
fc43
ff6f
fd5e
0429
faa5
0009
ff4b
fe5e
019f
fe79
ff72
045e
02b0
fe22
ff91
04e0
fae9
fed0
fe12
fdac
02c3
02bc
fb9c
fe8f
fec4
0463
0197
fa40
fb0f
05af
024e
028c
fd5c
029f
004f
0009
fd59
fc77
03c9
fef2
0385
0279
fbc7
fb68
03e7
feb2
02eb
faf7
fd4b
fc69
fd6c
fdb2
005c
005c
03d8
fc57
fc59
0142
fbe4
fa12
ff20
01b1
03cd
fb51
fa2d
0175
00f8
00e4
0101
fe66
ff35
fd4d
ff04
fd59
fbf3
fe2e
01e3
005a
fd61
fdd6
fa6a
0475
fdd1
fb94
0586
fa90
fb5b
05e0
fc8f
0639
fdca
fa03
047e
ffdf
0498
ff0d
fccd
017e
fcd9
fd87
034f
006c
0564
fe25
04ca
fa83
fe44
fe90
03ee
fdb6
0302
facc
ffb7
05b8
036c
04ea
fc10
0068
fe6b
fd8a
ff43
fdcb
fe08
0442
ffdf
fe01
ff7e
ffa9
fef2
ff69
fb83
ffe8
fd3c
047d
fb6d
0039
0392
fd19
fc23
01af
fd24
0240
fa48
ffd6
feab
fbe7
0070
02d3
fdc1
ff36
fd85
053d
0259
fefa
0396
00ca
0185
fdf1
0402
058d
021d
0244
ff1e
fe7a
fb8d
fedb
ff04
058b
ffc2
041a
0082
0082
045a
fb7d
0361
0352
0365
fc4b
0128
03f6
fffa
02d1
03ef
004c
04dc
0433
01e6
03b6
fb6b
0090
0152
0549
ff1f
ff58
fac4
ff7a
02c6
05ab
033c
fcd4
043a
fc31
fc3f
fe6b
faf4
fbb8
01e9
0363
fd05
0073
048b
0393
00a2
00e2
040c
02c6
00f1
06d9
0410
0399
fbd4
039f
0465
0285
019d
0324
0332
01fd
fdcc
02bd
0148
0046
fc9e
fecb
00f1
fff1
0243
048c
005d
03c8
0310
0295
0519
00d0
0334
0127
fd79
03de
0293
0581
0029
fdfe
0085
0109
fd52
03f3
fc92
ff6b
fb57
faab
fdca
fbe8
feb3
00ac
033f
fa97
04e6
fcc3
0260
ffc0
002c
fc5b
fa3d
fd13
02ae
ff0b
057e
0014
fce3
fb95
0386
075b
fc9c
01ec
ffef
fc7c
0326
043f
01ee
00cc
0323
0224
fbf3
fb49
fff4
04aa
fc3d
fbbc
fe22
fbae
013a
02ef
fd69
024f
049d
054a
fca9
041c
fe13
0471
0409
045a
00eb
00b3
ff59
fa51
faa9
fcbb
02ff
fdb3
0431
fdc4
fbb1
fef7
fb1e
05a8
0217
01a8
0081
01b1
ff2b
feb2
02e6
fea1
fbff
01fd
fd1e
0192
ff74
fe1e
04bb
fbb1
fe82
fe40
fb5b
0214
fbc6
fa3a
fa99
fdbb
001b
fcba
fe68
fbdb
02e8
ffb0
fae6
fbdb
0135
0597
00b9
ff32
fd93
0167
fce6
033d
ffe0
02c3
fdf6
0170
fcf0
0123
048a
fd48
0407
0578
fdbc
015e
0522
ff5a
0353
0396
fe37
ffbb
fa19
fe49
0147
0232
0432
0004
ff9f
fa5b
fcfc
036c
04e7
0031
fa8a
fb8f
ffda
0401
fafe
fe8c
0527
01f1
fd17
fe28
ff64
0149
03d5
0684
fdbf
fbdf
0058
fc97
fef1
fd06
0042
fdef
fdac
fb31
fe04
fa13
053a
fbe3
fd15
0195
ff4e
0135
006c
0220
0242
048e
03a4
059d
0106
fc5e
fbb9
fedb
040e
fc8a
05db
fecc
0151
002f
01a8
0376
007d
0357
ff4d
fede
03e8
fc95
0283
00b9
ff2d
fc69
fa70
fb8b
fc44
0044
fb50
fa27
fd3b
ffdf
013e
05a7
03d4
ffd4
04ae
fab0
04ad
0348
fce1
03d9
fae7
fe09
0073
0412
0505
0015
0208
03f2
ff25
0340
01b7
0376
00a8
ffc3
048c
01fb
fc42
fbdd
fbdb
0209
0104
0091
fee5
fbfd
0246
035b
0003
ff4e
fc25
0155
02d8
fbdb
0506
fc22
0380
02b1
fcb6
fd4a
ff66
011c
01b3
ff10
045a
fba6
fbbd
00f2
03ba
037f
04cb
003f
ff92
fecf
fe51
048d
fe13
ff1b
003d
016d
fe1c
fcba
ffe8
00d2
fa4b
fffb
fb84
fe55
fc1c
fd5a
fdfc
0264
fee9
ff7a
0031
f962
fd87
faa5
fc2f
02b2
0200
fac2
035f
fad9
0439
fc88
fb52
fd73
0268
03f8
050b
0309
fd53
fab9
fe0f
0333
fdb7
0272
fc1e
020d
041b
ff43
0259
029b
0280
0183
fe6c
017d
004c
046b
fa22
00ac
fa5f
fdb5
ff1f
0437
fbdb
faf9
0136
fb9d
0147
febb
fc82
023f
fc0a
01b2
0316
05d8
00cf
0508
0065
fbc4
020d
fecd
fd44
fbd0
04f4
0405
0463
fe07
fe54
008b
005d
fcec
fefe
fcc0
ff1f
fed6
0126
feac
ff49
ffd3
fcc9
044d
008f
ff07
034f
fdf5
016a
fc80
03f2
fd8d
019a
008c
01c7
00f3
feab
002f
fff6
0487
fc49
faa0
00ec
0513
0321
fc98
fb67
fdb8
fd56
fafd
0167
02ef
ffa8
04cf
fddd
fe0e
01c3
fdfb
fc62
feaa
02dc
0181
fc09
068b
0288
ffed
fe26
000e
fcc5
fc3b
fc40
ff40
001e
fe95
fbdc
0304
ff5f
ffe0
ffff
fa1d
0281
faff
fd08
0192
fad9
0462
fed4
fd47
011c
fbe5
0460
0256
fefd
01c9
fbcd
00a0
fe5a
fd3c
faac
fd5c
fbbc
ffa1
fa50
fc7e
0070
fd50
03c0
fbce
0131
005a
0068
fd0b
fe95
01d7
ffc3
fb70
fe12
fe17
0453
01f9
0132
01eb
fe87
fee8
00a5
fc62
fff9
ffb9
fabb
fe9a
fead
01a6
03af
003d
fc13
03ea
fe4d
0393
fc74
033b
fddf
fe04
0530
0159
02b7
ff8b
feb3
0080
01be
04b5
fe69
05b4
02fd
fdca
fcbd
03f6
031c
0202
fca4
fbf1
0394
0141
0318
fd58
0487
fcf5
fb0c
fbcf
fa41
02bc
fbf6
fc7d
fb75
fd15
02e6
fd44
fc50
faae
feb3
00c9
fbe7
fff5
ffa7
fdf0
ffe7
fab4
02ce
fc5c
0332
fbaf
0183
ff4f
01c9
fe5a
fd3d
fdb6
00d0
ff46
fddd
fe3e
0474
ff54
fa8e
017a
002d
ff5c
0306
fa7d
ff84
fa83
fd42
fc46
f9f6
fb30
fe20
0262
fb77
01cf
fc3e
0494
00f3
039a
fda9
05e5
03c3
0161
fa69
01d7
02bc
050b
feff
fe42
fc26
fe6d
fe7e
febb
fec5
fd59
fcfa
fdc9
fc64
fdea
fe94
fe9d
fa22
0408
ff81
022c
05a8
fd83
051d
fa84
0421
0083
fec8
ff8c
fe16
fed6
01aa
0291
fd7a
022d
00bf
0155
047f
0038
0102
0151
fc4a
0344
fc5c
fc17
fbc5
ff6d
ff58
03ee
fb21
02d3
fe30
030e
fcb4
058a
fa55
fa79
0121
012b
0570
fe16
fc23
01ba
fada
016f
0513
02e7
faf3
fd57
fec5
0076
fb71
0454
fe2f
0259
0419
ffe0
0097
0079
03d8
fcfe
0017
ff22
fcad
0053
ff81
fb5b
05d9
fd05
fc4d
ff52
fc66
0461
fff0
ff63
fa69
fca1
0260
017b
0233
0088
fbb4
0305
fc07
02e1
fe00
0542
0195
0416
02ce
fc17
fbc1
fda3
00fd
0022
ffa6
03ca
fed7
00a5
03a2
01d4
02c4
0308
05d4
00d6
0464
0171
fb49
ff1e
02d4
041f
ff45
0031
fb8b
feda
fb27
0216
03fb
0143
fa15
03f6
fd08
faf2
ff44
00fa
0078
0467
00d0
0392
01fd
fb90
fdad
fb61
ff88
02f4
0270
00cc
fedd
fded
fcd5
0102
01b8
fddd
fcb0
fd16
00ec
fdb0
03e5
fc06
fbf7
fd16
02b7
ff03
0364
fa69
0403
0077
0283
fd0c
05eb
fd42
0325
fefc
039a
fe92
015e
fcbc
03cf
05b5
fe40
fbb5
0167
00c0
04cd
0351
009d
0404
fe0e
0263
0261
fc2b
fde7
000d
0143
feb2
ff19
02b4
ff94
016c
fd60
04e4
0079
ff36
03f9
fad2
ffa1
0452
041f
fe3e
fe7c
071c
03d8
fc5f
fb82
fe4a
040c
ff9d
04a3
02d3
00cf
f990
fdd6
fcaa
ff14
0142
fd68
fc1a
02aa
0455
010a
027d
03ee
049d
fd86
fce3
0434
0574
008d
0431
0514
0073
054c
0292
fe94
042f
fa87
0451
0290
fc64
fbb9
0564
facc
fc7d
01a6
00b2
0068
fe2f
fae4
fd4f
fbf6
fa7e
03f6
ffb1
01b3
023d
fc4b
ff02
052b
fcb1
05af
fc0e
fdf3
fd9a
fb4a
0547
0224
00ed
fd16
0375
0329
050e
031e
03cf
0398
00e3
fe74
fa2f
0024
fdd9
ffdc
0303
0082
00fb
fcdd
fad2
01db
00a7
0188
fe70
027c
0288
043f
03b4
fcee
0127
0386
0075
05ab
fddf
0278
022e
059d
fd05
fbff
fce8
feba
fca9
fc2e
01a2
fb66
0181
02f5
fd58
fcb3
fe36
fa88
fb69
004b
fd2a
0292
fceb
fcec
fbe5
05ad
02fc
fb5d
fc6e
0095
0714
fe41
0249
fbce
fcce
ff24
01de
ff2b
0485
fb39
fd95
fb40
01ae
02d0
ff9c
fd5d
fed1
0134
03cb
03f0
0293
034a
fa73
0103
ff8e
fbb3
fdab
0058
fe9c
fcb9
fced
01fd
052f
0015
025e
0186
02a7
0346
fcf4
004c
015b
fa46
02c2
0086
fb93
0463
fadb
0172
fa27
00c6
fafb
0077
fbbe
fac3
03c7
fb5a
fe12
05b5
fcd9
ff60
0264
007f
fdc2
0058
03c1
03ea
fea7
0318
ffac
003f
0312
fcbd
fda8
0362
0142
0173
039d
ff0e
0130
fbe0
0107
fb36
031f
03fd
ffa3
febc
0096
049e
05a0
0190
fc12
0427
0270
fd52
fb80
0013
0461
fc5e
0362
ff52
00a7
fcc6
ff27
0252
ff4d
02e1
0217
01aa
ff0b
fee3
045c
0162
0154
fe68
0255
fcc5
00f0
0252
049a
015f
ff60
fbb0
ff87
0567
fb76
03df
02fc
042a
01d2
fc1a
0243
fd4b
fe42
ffc8
fe74
fe22
0130
faf4
febd
03c0
0258
0508
fd6d
fe17
ff96
0428
0053
fbab
fd0b
0358
fe41
03ff
fe9d
0198
02a6
0028
0273
0462
02da
fd63
0526
0110
034d
fcdb
0331
0277
04b7
fa11
fdc9
fd0f
00e3
fa19
01bb
036c
03e0
fcd0
fe34
04ac
03a0
ff79
001a
ff7e
053c
fb16
fc27
00ca
fe54
fd3d
fb54
fc03
0003
ffd4
ffbb
ff0d
fb38
0243
ff69
0389
05bf
02b2
fdb5
fa67
fd64
fbe2
027f
fc29
fd8c
009c
00e7
fbe5
03d4
fc9d
fff6
fd13
fc41
fd34
fc53
fd89
0482
feb3
fe9c
ff02
ff41
05c6
05a6
0495
fbce
00d0
feac
01bd
041b
03fb
04a8
0381
fe9e
01b7
fcc0
fa37
02e1
fe14
0283
fead
fc20
036d
02e8
fa1b
0043
fcc6
05dd
fdb9
00e0
045e
010a
ff5e
fdfb
ffdc
06cd
0059
ff4a
fe3a
03b3
05d6
048e
fc58
0032
fbf7
fe6b
0204
006a
02f8
02ef
009b
fca5
0400
0219
00ea
fcb4
040c
03f1
0092
feea
fdff
028c
01c9
fafe
0469
03c2
ff77
0355
0524
ff50
0418
fb2e
0282
fedb
0395
04f4
ff5e
fbe7
fd9f
0521
0342
0400
ffe9
02ec
05ce
0243
00f6
fa6e
fe02
ff38
fad6
fffc
02e6
fa1c
fc65
faf1
029b
01e3
fa85
0102
fbce
00d8
fda2
ff97
024a
fed3
fbee
0315
ff9b
ff56
010b
fff9
0424
02f5
fe75
011b
fbcc
fa9b
042b
fc98
fe6d
0358
0076
ffe3
fc93
00cf
03a0
ff9f
feb0
0481
012a
00f6
0417
fdc3
01e2
0415
fecf
ff26
0300
055b
fe7f
042f
0081
fd00
00f3
fcba
fd81
0348
fdea
fee4
fb8f
00bf
ff5d
058b
fff3
0426
ff74
0312
01cb
fe7d
fc09
fda9
fde4
03c4
03e7
0404
fa3c
fd09
0528
00cc
022c
0076
0189
0283
03c3
fc7d
fde2
0372
02f4
fb87
043f
fe9e
fe54
0172
01f7
fcc9
0297
046e
0518
0123
01cd
fb88
0136
01dc
fbd9
fbc6
fd5a
0023
0107
fdf0
fe9f
02c4
005a
040e
fef9
0391
0128
035a
039e
fcbe
fd64
fce9
fd5d
0194
fda4
030a
fc37
03cc
fd61
05bb
0390
0320
fc2a
faa5
03e8
0202
0356
fda2
0135
fdb4
042a
ff76
00d5
fda6
fbcd
0372
fdcf
face
0251
0187
fe31
fde4
00c4
03cc
0088
fe9b
0040
ff35
ffc8
01e1
02b7
008d
057c
052e
fad0
fcfb
0247
fdba
fdc3
ffde
fce1
fcc1
fafd
fd07
032e
0166
fa49
0176
fd17
00c1
fc40
fbef
007c
033c
fbef
036f
0151
010f
03bd
ff84
fc5f
03e4
fdcd
fda5
0080
03a1
fd14
03dc
01c0
03ad
0313
01d2
fff9
ff15
0407
0468
01cc
0002
0497
fd82
01b1
fa6f
fd17
ff1c
feaf
0182
ff21
00c4
004c
02f8
ffbe
0403
ffab
0493
fca9
0544
0558
0166
0169
ff1e
ff94
035d
009d
fe00
02ab
fbc7
0389
0448
fd8e
054b
ff40
0220
0384
0209
ff1c
fbf9
ffe2
fead
fe29
015b
008a
ff49
fb12
fa34
ff0b
04a9
01ae
01e5
fd33
fa17
034b
fd85
0418
0591
fcf8
fde7
01ce
fb48
02f4
0539
03cd
02fa
04af
03fe
ff7f
02f2
021c
006a
fe95
fbe2
fd0a
028c
015b
03fc
fb65
ff0c
020a
fb54
0182
0037
fd2e
fc87
0026
041c
004f
0037
fd6c
ff09
02df
fa7b
033e
fa19
0451
fc16
fae3
050a
fa17
02d6
fb59
03d8
ff22
02d9
fef9
ff5e
0501
fd96
ff64
042b
fa70
fe05
02f4
0192
04dc
fabb
fee3
fb2b
ff7c
ffac
fad1
fdbb
fdcb
fd03
fee9
fcc9
0197
0017
0579
fc89
fb86
fa30
fcb2
ffa6
01e4
fc4d
0534
fb0d
fcde
0196
0179
fcfd
fdcf
046c
036f
fceb
0559
fe51
fc41
fe9f
002e
0169
fce7
0057
0154
ff11
03c4
02bb
fe9f
fde2
037f
015b
fdb8
feb4
fcc5
ff6a
03ec
fabc
ff91
fe6a
0427
fdae
01ab
fa60
fd74
fc38
fee5
0324
0478
03b5
050d
fccf
04cf
fc0e
03af
fdc5
fa52
ff2e
00a6
041d
0502
039d
0439
fdc9
01b7
00b3
0359
fc6f
04fa
0596
05a4
fb64
0095
ff7f
fce7
0430
fdc2
ffba
046f
009e
0465
0050
0271
0439
035c
027a
01c1
0256
0392
fa11
fa31
fbab
0273
fccf
fca0
04a3
fd40
faf8
fa29
ff8e
fac7
02a0
fcbf
fd24
fe38
0484
fb21
faec
fffc
ffeb
02a7
fc19
004a
fbb8
fd87
fb0d
02a3
0371
fe87
03bc
02a3
fa56
fc1c
0270
0149
fbf1
ffb1
012b
fe7b
026e
016b
013f
0449
0364
0143
fddc
00d5
fada
fc55
fdbe
fcb0
039b
02e1
fd15
03b0
0531
ffce
fc3c
03a3
fb7e
0506
00d2
0234
0231
0376
01fb
04d8
01f2
03d3
fbea
fc30
0334
fe6f
fe28
fb93
fe38
00de
0000
fbcd
fbf0
fbb5
0457
fecf
ff28
0059
051e
ffd0
00d6
012a
fdbb
ff87
fbb1
017e
00c8
fcb1
faad
fbea
0065
00e5
fe22
03b8
fd24
00ca
0317
01f5
fe33
fca5
0324
fc86
ff67
fdea
fc51
fbd6
fd3f
facf
03f5
fd06
ffe9
0199
fedd
fdad
fb58
ffd2
fc66
0274
fc1c
fbe0
ff81
fa31
fc1e
00dd
04ad
fce1
ff51
01a6
faf9
ff45
fc63
041b
0081
faf4
039b
0503
fd1e
ff4c
fcf4
017c
03b4
03a1
fe9d
0490
fe8f
006e
fecf
050f
0492
01cf
feea
016e
fc33
fe2c
ff02
00d2
02ae
0148
ffbb
fdde
0360
029b
feb1
05b3
fe87
0417
0360
faef
0023
fc81
ff4c
0155
fd2e
fd15
fbe8
049b
0248
0432
02c3
ff09
ffbc
05e8
023f
ffd0
fddb
fb7d
fce6
04fc
0559
01c9
fca2
ffd3
03c1
fd66
0537
007c
fe5e
00d4
fbeb
fcdb
0323
0118
0108
fa2e
01cc
0087
05e7
fdb5
043e
fd0d
0389
fbe1
fd6c
0280
0198
fb78
02bc
fbb0
017e
fe55
ffad
056c
039c
fb37
01a0
ff1e
fa96
023b
fe5c
fba3
fca2
fa84
ffc2
fb18
0093
001c
0314
0007
018d
ffa2
fdb9
fb34
fdc0
fccf
fe20
fbb4
03a4
02c6
00e2
004e
03a1
fc69
fe1e
fe13
01e2
fc75
ff8e
01ad
0340
010c
ff34
fba9
000a
0267
fbd1
03ad
faa8
fb02
02c1
fa9b
000b
ff6e
01f1
fde2
029f
03b2
0204
0279
0760
00a0
fa80
023d
ffa9
023e
00f8
0171
feb8
03fd
0175
fdac
ffa7
04ec
01d4
fef5
faf1
fd05
02d4
0256
ff5e
fca9
0238
fe6f
fca9
fdfb
0355
026b
ff0f
fda6
ff8f
0604
0535
037b
fa7f
fb96
ff7c
ffd7
fcf0
02a7
fcb6
fa89
fab7
fa8f
0142
0230
fb68
fa24
0258
fc0e
fd5b
fcb4
fb12
fc03
fece
02f2
fca2
023a
0169
0148
00d6
fe1e
fcb8
ffeb
00da
02b1
021c
fd01
0474
fd91
0414
053a
000b
003a
0303
013d
faad
0419
0556
fdda
02c9
005e
00f8
feb0
0393
fba9
00fd
fc41
0327
fc71
03b0
fe48
039d
014c
017b
0312
fcbd
05c8
ffd2
0279
fed3
fc61
0418
fef0
011a
fcdd
ffcc
fb98
fc08
0353
03af
fd3c
fe59
fba6
039f
04a2
0349
fa18
025e
febb
05b6
00b6
fd54
059b
fe1d
fffd
fbc4
01fd
fe00
0216
fd42
013b
fc33
0148
035d
ffd6
fe5c
fc07
fd18
fe32
ffa4
fbcf
000c
0084
fa86
010e
fdd2
fcf2
0007
fe69
fcda
05a5
ff99
fdd5
03c9
fede
fab2
fef6
0541
00dd
040d
044d
fbf3
00b7
ff72
035e
0461
fae1
0473
0411
01b6
fe71
fe35
036f
fe05
fd07
01e3
0544
fcd5
03ca
fe56
ffe5
fd3c
fdc2
0490
fe5f
02ff
fdca
ffbc
02da
fd74
03f7
fe76
00b2
0169
fdaa
0226
ff23
fc5c
00d5
feff
ff98
f987
fb5d
013e
056a
0355
ff2f
fece
ff86
fbc2
fd31
047a
fcea
fd78
fcfb
04dc
0182
fdff
fe26
fca9
04ba
ff69
01d9
fbfa
0172
fe31
fc9e
fb2d
fbcb
fedf
0240
fbc5
fd39
fbd5
fcc5
0300
0122
034f
fc7d
fc68
04bf
03de
0045
fc70
0062
04e1
fa4e
ff80
05b9
fa37
fdc9
fd88
fd39
fd5a
fdff
06db
00ca
01de
fdba
04de
fedc
0430
05b5
005a
031c
0221
fc8c
fec8
04da
03a3
fbd2
0104
01a0
03c6
faa7
0248
00f9
ff12
03a0
fe29
ff54
fed8
016b
0102
028c
0255
01f0
03f6
ff87
fb0b
fa2b
0447
04a4
054f
010f
fc02
fb77
fdce
01da
0595
030f
fb13
fa80
ff89
0463
03b4
fb49
fbb9
fce1
fff2
03b0
fe80
0166
fd99
000f
01d7
fbf8
0016
0351
0081
017c
00d1
00d8
0496
03db
fe74
fecd
011f
fb25
030a
fb2f
013a
feeb
fce0
048a
0371
fdfb
00ff
0459
028e
0205
01bd
ff44
04af
ff39
047c
ff4e
002e
fdfd
055c
ff5f
fd6a
fda6
fa56
0221
fbfc
fe93
03c1
fba6
fd06
00d4
fd1a
fc1b
0144
fa2d
ff73
ff47
fd03
ffc9
0357
fc58
fc1e
fcf2
0422
02b9
0466
fc58
fd8d
fef6
fb71
ffd5
fdae
011d
ff1a
fb99
fc08
ff7f
0050
04c9
fc5f
02ec
fbb0
0460
fa73
01c2
02dd
03eb
fd42
ffbf
0038
043e
fc83
faa5
009b
0381
015e
0241
0046
fc40
0007
ffd2
00af
fd28
01e6
fbfd
0010
0311
0148
0238
ff53
ff2a
ffa0
00d8
045e
fe69
0390
fd60
0593
025f
01a5
0189
fa41
fcb5
fbe5
0282
01eb
fd9d
ff1f
febf
ffce
038b
fe1a
fe63
01af
fbd5
04c4
fa24
0415
0441
fbdf
fd57
fcbc
ff53
fe28
03e8
ff58
fe08
fc58
0073
0270
02e9
0588
ff31
fb30
003c
039c
ff6c
ffac
fd50
0143
0121
0524
046f
fc10
01ae
fcab
00f2
0083
ff3e
05e0
ffad
025d
fcac
fa27
fc82
01ff
fb35
01f9
fece
fd47
fb0a
0251
fae9
fea8
fad5
fe89
0289
041c
fe84
00a6
fed5
021a
0184
022b
ff8a
0160
fd70
febc
fb7b
04ac
0066
06ec
0427
fd12
00d6
05e5
04f1
056a
fe0e
04c0
023b
ff2c
004a
fa0f
fba8
02e9
02c0
fd43
fcb4
fc11
0001
fb7e
01cf
ff68
05e6
053e
fe3a
0317
0453
fff8
ff7f
fe39
039f
0401
fca0
ffd4
035c
faa9
044d
ff13
0325
019a
ffba
facc
033a
0166
ff16
011f
01a0
013f
fc1f
fef2
fdfd
fac2
fc9b
ffc0
fb3b
ff00
0088
0464
ff17
fef2
0022
022e
0277
064f
01a9
fdfd
fb42
fc4e
0469
ff0d
0373
0065
fd6b
f93e
ff09
fea1
01f5
fc8f
0008
00d5
fea5
016a
ffd4
ff3d
fd43
040f
0078
fffb
055c
0463
027b
00fc
04df
012d
0466
022d
059f
fb8e
008d
0429
fcc9
0471
face
01b6
ffd8
fb3c
fc7a
fda1
021d
fbf2
fc83
faed
028b
fce6
0427
03d9
fd15
055b
fbc0
fd49
0280
019a
05c4
0379
ff23
0134
fe5f
ff0b
002b
0427
02aa
02c0
0584
fbe0
fbef
fded
ff4b
fc28
fe14
0380
00ad
03f5
01d2
03bf
0119
ff30
ff9d
ffbf
fb2a
fbdb
035b
01a4
0301
fc70
0495
fc78
01ca
020f
fd4a
055e
01e6
ffe5
fdc7
03c8
05e2
0197
fcdc
fd38
fa89
ff98
004a
00ef
fda4
fd6d
02c9
01de
fed1
01b0
02fe
fac2
fcf9
02c4
fe14
ff20
04cd
0420
0287
fd17
021e
0480
0142
0771
00a9
004b
00a4
0404
025f
fc2c
023c
01cf
025d
0046
fb41
0078
035f
ff89
0546
0274
0386
0379
fe40
03af
fd37
fcfc
053c
fdf9
0312
fee8
fd1f
fd35
022c
fbbd
fc8e
013e
00bf
0097
feac
fc5d
ffed
ff99
0229
feb6
01ed
fbd6
0335
0106
ff1b
fd63
01d7
ff60
0510
00c3
ffb0
0274
0381
0478
fe89
ff88
013d
01f3
0192
fe8a
ff0a
0225
ffa2
0463
fffa
02e5
fbf4
04ce
018a
033f
0312
03c5
03a1
fc3f
0140
fa67
005e
05a1
0423
fd70
fbf2
fac8
026c
0432
fb6d
0246
01aa
0088
0013
022c
fc7d
fad6
02be
fd31
056b
0178
0367
fc95
fdd7
fa3b
0200
0007
fa2e
fe88
fd9e
00de
03c2
0123
fb8d
fbf5
0199
fa36
0300
03d1
023b
0081
fdb1
0108
fe06
0293
0268
01f6
fbc7
fdf3
04c2
fd03
0070
04e3
fe0e
ffd3
03bb
fd6b
fef9
026f
0142
0255
038f
fb92
ffb4
041e
ff47
ff71
ff27
ff63
0117
00ed
029d
fc64
fccc
fef5
fde9
fbe8
030a
01bb
0436
00e6
04f6
ff8c
ff2a
018c
febf
fae2
fb6a
036b
0461
01c1
0357
0333
0263
0031
fc2c
ffbc
0324
ff6b
ff49
fe11
05a7
0382
fed7
fe57
ff22
036a
03cf
0293
0270
fe75
05b7
fcc8
fbb3
ffbd
0346
07a4
03e6
01f8
fade
02df
0403
ff44
0541
0103
fb2c
0355
009c
0453
0333
fe42
0561
0405
fb6b
045c
0131
0379
fac5
fcf0
0256
04f5
0245
ff72
0239
fb7a
fbe6
00c4
0505
01ce
fc39
fea9
fac9
fe30
0127
fb6b
0357
0350
fdce
00d2
0017
0454
0167
fa28
0408
feb6
0121
0386
043c
fec6
fe02
ff72
fb79
01d1
040a
00ec
05ce
fdf4
02e9
00d6
ffcf
05e4
02e5
fba4
0067
035a
fb9f
fcea
0079
03fe
02fa
030f
fe33
fcc8
ff06
0425
fb5e
fbed
0343
01fd
00ff
fe96
02dc
fbed
01c8
00e7
fe05
0218
fa9d
ff71
03c6
018d
feef
fd36
fe7e
fd68
0141
feca
04a5
fdc7
fffd
fba5
feca
fc5a
fd2b
ffd8
0334
01bb
fc76
03c0
02bc
00c8
016d
0233
fbbf
fe30
fc8e
ff22
fdd5
fccd
01c6
fb98
03f2
fe46
0257
fdf7
007d
ffff
fb9c
fc50
000e
ffcc
0548
feed
fbb6
ff37
fe5c
fef3
0463
fdc8
fba0
fa9a
01aa
fcfb
0082
0060
01eb
fcbb
05bb
fbbf
fc20
0063
fd0b
02cb
0228
ff49
04c7
fd59
ff16
fdae
fce6
fbcb
03e6
04da
01a6
0352
fd10
fb40
03bb
02ef
fb66
03fc
00b0
00a6
0113
00cc
0155
fb72
fa7e
0020
0242
fdc3
fdbc
0022
fd83
fa42
019f
0186
fe43
055f
0048
ffe9
fc49
fdab
0242
0200
fefe
fca0
fffd
faae
0192
0265
05f7
feaa
00ab
0465
fb5d
fd03
ffa7
ff81
0395
02c0
03d0
fcb2
ffd1
fd9a
000f
fd57
fcda
0354
03cf
fd15
fd05
fb6f
01c8
fbea
05ea
fff3
fa17
00d4
009d
0108
024f
016d
0339
fb3e
fb8a
feae
fdf8
03e8
016f
fd58
ffdc
0139
fe88
04c2
039c
feaf
fdcf
fd55
fb81
00c1
fcd9
01dc
faee
0014
fcee
fda1
ff56
0479
03f7
03ce
038b
fd33
fa29
fb1c
0128
fc3c
0524
fe7d
fe14
0180
fd1e
fe35
02b5
00f6
0196
fe79
02b2
ff2b
0116
003d
021f
fe00
fe8f
057b
fb9c
020d
011e
fc48
0214
fc4c
0204
fbcc
ff9b
fc34
fb83
fbf6
03e7
045d
faf6
fdb7
047b
fa6d
0402
fbee
0230
00f9
fd47
fca2
fd0a
ff17
fff8
0406
043d
fba6
fa3e
ff9d
0343
fa44
fd82
fbcf
01cd
fcb9
ffcf
031d
023a
00e6
fad0
fde3
0122
01ed
043d
00ff
faac
02e0
0004
fd5c
f9e3
003f
ff14
04c1
00f2
0424
fe99
023d
fc0c
048e
ff47
02a8
0565
fcef
01b7
fc1f
0583
fb9f
ff8a
fe86
0437
fa74
fc2c
fe63
fee6
0408
fe9f
03bf
024e
ffd6
fdb5
fdba
ffa7
0272
ff4b
0576
051e
ffdc
ffb0
fac4
048b
fef9
043f
00b4
fab5
03c0
03fc
02e1
059c
0340
0368
fcf3
fec8
fac5
ff18
03ea
0379
ff08
0106
ffcd
0324
0015
fd5c
0197
0097
038b
ff3b
00f4
fd6e
04e8
0261
fe01
feec
009c
ff6b
0586
ff50
01c6
fe8f
fadb
01f9
fbd9
fcfe
fc4d
fc78
ff83
03d2
fca4
02c9
ff63
00d0
feee
043f
fcdd
003f
fee6
02a8
0297
fdb1
0106
fff3
014d
0190
0178
03ae
fdb3
0065
ff43
032a
02b5
fe0a
fbd4
fece
05e4
05b3
fc3e
03cd
faaa
fb1c
01b8
014f
0428
01f6
02e1
02b5
fde6
fd9f
fbdd
fab3
0304
009a
fd32
ff62
01e4
fd25
ff83
fe01
059d
fc52
fcae
fe59
fa89
0363
0396
0511
0067
feba
0391
00f1
021f
03ae
fbfa
fe8a
012b
0395
fc16
04cc
0222
0463
0078
fc21
ffe9
ffc8
ff97
fbde
fcdf
007c
fc93
fc51
fed6
fc19
02c8
ffb1
01b5
fcb3
02be
0358
fed8
05a4
01d4
00f7
0300
020b
0122
05c5
fc07
0520
fd20
03b3
00b9
0198
022d
fc44
04a3
ff19
05eb
fb63
fcc6
03f4
fc0d
004d
0240
004a
ffa0
fee0
fe26
0162
0205
fbd4
0498
fc55
001a
ff36
fef0
ffde
fc61
00f2
01b0
01ff
ff98
ffa1
0096
03d0
feb2
015a
fba0
02f6
0451
fdc2
ff5b
fcfe
01f7
0579
ff60
fa40
025b
019c
0209
0183
036a
011c
010f
fe74
049b
0471
033b
00da
012a
fc41
03b1
036f
fcbf
fc63
fb02
fa23
fedf
01d6
007f
02c1
fe32
ffc9
0447
0197
031d
04f1
0413
02e6
01ff
fd9d
fd5c
fe09
fda2
ff7f
00af
0025
053c
fa12
039d
000c
fdf2
fa34
faf4
fd58
037a
fd75
02d9
fdfc
fbf0
03f6
ffd9
fbb1
025d
023a
028f
ffe5
00c3
ff97
fdc5
02f5
0306
0020
000e
fda0
01ff
fd9d
feb0
fe4b
05a8
03f6
0210
feba
febc
fbfb
0015
01a7
fe34
fc25
0014
fae8
ff97
fc77
fee3
0239
051c
002e
0071
fd32
02e8
0309
04b8
fffc
ff53
04b3
fe82
0124
00e1
fddb
fc82
0046
fe2e
ff92
02f0
019d
045f
03e7
022e
01ed
02a5
fc05
fab5
0155
ffae
fd71
fdc6
fe80
0388
fd4a
feac
fcf6
ff44
0155
0178
02a5
0295
0215
0441
fe98
0079
fcfb
0157
00de
fbb0
020d
fe7c
fd5c
0072
fdce
004b
01c1
015c
fc7b
fd0b
fae0
ff9f
00b4
0115
0301
00bb
021a
fbc2
01d5
0053
01cc
ff59
ffaa
0447
ffe8
faf7
fd37
fd81
010e
ff54
fc9b
0535
fb5c
fbc4
fef6
00a4
fd89
fefb
fde9
0383
fd43
012d
fd25
fa36
fb78
0453
01e1
0535
fe83
fb8b
fe77
01f1
034a
fbee
fc46
0186
fd67
ffa4
00fd
fc7f
0515
018d
0376
0149
fef2
fec8
00eb
0171
fea3
0157
fe4e
01b4
ff64
0011
0311
0151
fda0
fc64
ff73
fc70
02a2
fe49
fbbf
fa7d
fd9d
fb55
04f0
fea6
0531
01dc
ff3e
feda
fbcd
00e3
fab8
0433
0184
fbdf
fe76
0240
fb21
fbbb
026a
0225
fe67
fe7d
0297
fbda
03b2
046a
fb9c
ffd2
00e5
fb0b
03b8
01d5
03b1
01c1
fc4b
06d7
00a1
fe77
fe9a
ff40
04e3
0412
fff7
05bc
fc72
fa08
0423
0199
ff3d
01d4
ffb7
02de
03ac
fd41
fe61
fda6
fff0
feeb
01ad
fe1d
0070
0146
fadc
fc3c
0481
048d
fc98
0216
001c
fc46
014f
012b
febd
fed8
fcf9
05ac
ff8b
faab
0151
0384
020b
0172
ff07
fc8e
fe60
faa7
0014
fba1
fbb2
0530
fd7e
04c0
05e4
fd49
fe95
040f
fbbc
fed5
faac
001e
fb80
02a2
040c
fc42
fc45
fce8
02be
fd97
fd5d
0029
fb50
fd63
0321
047a
fdab
fc54
fb4c
0475
016d
fc6e
fc9a
03b1
fcb6
0277
0228
05f7
029b
fbad
fed3
ffd9
01fa
05c7
047a
fa1d
0077
fb38
00e6
fc53
0150
feb3
fd25
fa5c
ffa2
fc6a
ff3c
02cf
ffbc
fc0a
ff59
008a
0036
fabc
fb8e
fe23
fdca
0002
0334
fac4
01a5
fecd
0268
00ee
ffe2
ff17
fd16
00d9
0399
fe3e
00c6
013e
ff0c
fd9b
029a
fcc0
fa79
feab
01c8
0582
fbe0
fa43
fead
0285
fe72
fe2c
fe31
0245
028e
054a
fc98
0012
0082
0190
03ed
03cf
0119
058e
fdcd
ff44
0227
fa9b
006b
fbd6
0324
fe72
fc29
01e0
ff39
fc2d
02f6
fcfe
fc00
0239
fbbf
01b4
000d
026c
0357
0112
fbbb
02b3
fc14
0445
0050
fa91
fea7
04a7
03b5
00c0
01c6
001f
fc30
01ea
003d
03f1
0050
00b3
0258
0139
0155
fb06
fc6d
01dc
fd72
ffc1
00fa
0024
009e
ff9b
0315
fb91
0192
056c
05ad
fc24
01da
0261
ff12
051c
fe45
fd29
02bb
012e
fb27
040e
03b7
0551
021c
01dd
00e2
fccf
0309
035a
fd2d
fb7a
fbb2
027e
0339
fb95
fcb6
fe2b
01f4
0433
fe78
024f
0342
023a
fdcd
ffc7
03dc
025a
fcfd
0342
ff8e
fc06
0043
ffb3
02b3
0214
04a9
fc8d
fb0c
fb10
00b4
020e
fe86
fbba
fedd
fad9
0227
0147
fd67
03fa
fe59
fb89
031f
fbfb
fc01
019c
fde1
0179
ffba
02ec
0127
023e
0333
02f9
fd3b
00a9
fc38
fd54
02b8
fcf1
fef6
0315
fc7a
03da
016f
fdd5
feee
fa40
0156
fcf2
ff81
03b8
fc74
02da
fbcd
fe2d
ff65
01bb
fc3e
ff4a
fd0d
fe3e
0275
073e
0412
ffba
00bb
026e
0507
0147
0319
002a
0027
0314
045f
02dc
03bd
0064
fd91
fc19
01e8
018a
fbb7
fc93
fad6
fdff
03d6
fc60
fefa
02a8
0213
02e5
03f3
fed7
0560
053f
02f0
031d
ffe5
01ad
ff60
052f
00af
fc37
fd66
0128
0199
fd8e
fefb
fa21
fd0a
0145
0187
0145
fc29
fad0
0316
fcb6
005c
04cb
fd1f
fb6c
0071
01ee
04c8
fc3b
0275
0105
02b6
fc07
ff71
0358
0206
fd16
02e5
0510
fcbe
028a
ff3e
006a
0124
0206
fea7
ffd4
0144
0289
0294
0391
00c4
02ea
00d3
fc90
fcd1
fcd8
ff11
fbb8
fcc5
fe58
028a
0184
fffc
fe90
004d
fe56
0371
0458
01bd
0292
fc8c
0045
fb80
054a
ff3b
feb3
fff7
fb39
036b
023f
0274
00e0
02b9
fda3
fdda
fc4e
ffdf
0176
028a
03bf
04c1
0435
ffa8
01c1
fec8
fa67
fc07
019a
010d
fc02
fdb4
ffde
fd6e
0371
feca
ffe2
fe2f
008f
ff3e
fef8
fc16
0045
ff61
0025
00d3
fb35
00fb
00e9
ffce
fd65
fce8
fb02
00a8
0259
0081
0222
0039
fe75
fb0b
00d4
ff43
fb2f
fdd7
fd8c
02a3
01ad
0382
01c0
fc2e
fbf1
fc9a
0378
fba3
fabd
02fc
fd98
0435
025e
fd5d
fc92
fc5a
01fd
032c
faa8
0385
fcd4
0123
fe40
fe43
fe59
fa89
0315
031b
04e4
ff3a
fc56
019b
fb3c
fb02
02df
04a2
fdc2
030a
ff41
0403
03d9
fd68
fab7
0187
01a0
fd10
0398
0560
fd83
0364
fc90
05c4
ff5e
045c
0588
040d
fe96
0397
fdcd
ff41
0256
fbbb
0114
fd33
02dd
ff3a
0496
ff2e
ff59
fb26
fc0e
0202
ff21
fd99
00d8
00a9
fe09
0158
ff59
fef2
0406
0077
fd3a
fc9d
050c
0350
00e7
0364
02da
02f8
0205
ffdf
fd00
00b8
ffec
fe36
fc18
fbe7
fd01
054c
03e0
0137
0385
faeb
fef7
fc5d
0362
02f0
048a
ff4e
0159
ff5a
02bd
fcb6
fd36
fc77
01c5
0080
05b4
fcdb
0188
fcc8
ffe2
01f2
0376
fbfb
0565
0333
fb7e
ffe0
0016
00e8
febf
0241
0088
0300
000e
fd27
044d
fbf7
fc8b
0062
fca8
00a0
fe2d
fe3c
03d6
01bd
fceb
faaa
0505
fb19
0013
fe2b
02ad
fc6f
0102
fcdf
04e4
ffde
02a4
fa84
03f8
0550
0249
fc4d
01a3
01a8
03e6
fd34
fd23
0075
fe9b
feeb
0354
02de
ff9a
0035
0218
01b0
fd65
0559
0110
fe09
fc9e
fc62
0379
050b
fd70
02a6
fc87
ffb3
0457
fc48
0109
030a
040b
fbef
fa39
02c4
fc08
0203
fcce
ffaf
057f
fbaf
fb9a
ffc9
01f6
fd55
fa32
fef7
0250
ffc8
00b6
fd76
fba1
feec
01ba
0309
04ff
fc6b
fb9e
fb08
f9ee
ff7e
0296
ff68
0537
02a3
03d1
013b
fb07
fd36
011e
00d7
039b
ff08
00cf
00b2
045e
ff3e
0086
032c
0573
01cf
0422
0201
fb01
fb9b
ff87
ffff
fbc0
fdba
fcb0
00a2
fbbe
ff78
033c
0400
fe74
fcc9
fa82
fb97
ff15
018e
0177
fdc2
fe85
0321
fe08
feac
fc13
fe6c
fa7c
04e0
03ab
0166
fd63
fd74
ff74
043f
0417
014f
0571
0001
0009
ffa5
fab8
fbd7
007f
02f1
050c
ff37
fab7
022a
045b
0226
ff54
fee9
04b9
000f
0504
040a
049f
fe94
0229
fe38
fd0a
ffc4
fd66
04cc
ffdb
fdb1
0453
04d1
fba7
0177
0177
01cd
fa6d
0249
01fd
fdbe
045f
fd70
01cc
0538
001a
fec4
fdef
ff5c
038d
fc9d
fba6
0086
fba7
ff57
ff60
03b4
fdd7
ffac
ff66
ff8f
fd10
fe88
fddc
fd6d
041c
020e
fdd4
fbe2
022b
0464
fc4d
032d
0160
fbbb
fe9a
fe6e
0124
03d9
fcf3
012b
0369
fe97
05dd
0243
ff6c
0218
fca4
006a
0272
fca6
0169
01ad
01c6
fe8b
fdfc
01b9
00ad
020f
04d5
fb64
ffa6
00a3
0453
ff35
fe7f
fa53
fd53
016c
fae6
044a
fe34
fd1a
fffb
fcea
0535
0423
01b0
fcb2
01f4
fc5f
fbdf
fc5b
0612
0220
0164
042f
059b
00c4
046c
03d4
0206
fef5
fdc7
ff38
fb03
fc33
021b
02c4
01f5
fea1
00c5
0139
044d
fb46
ffc3
feda
ffa1
fb97
fe4f
0086
02a2
febc
0199
02e7
fcbd
01ea
fb85
0451
0012
0012
ffc0
0047
03b6
fec2
fa59
fce4
01d5
fb7a
fa38
fe69
026a
03b9
fcd1
030a
02dc
0397
fe40
ff0f
00cf
015c
fe17
fe2f
fc57
ffc1
04a5
fd3f
04e1
029c
ff25
01d6
ffa1
0401
fdc4
fcef
fe79
046f
fc12
fdff
ffb3
0531
048f
0075
fcad
fdbf
00e6
0397
ff13
ff6e
fccc
0531
ff0b
0211
0069
fbc3
0220
fe3f
0003
fd48
fc63
fc65
019d
03af
fc02
0276
febf
0321
fcdc
fb0b
fa69
0143
0525
fc2e
03b6
fc6b
fbae
0080
fda6
00fa
fe2e
ff83
fcd7
faa6
0279
0558
fe7c
0240
fa22
fcd9
04d6
faa8
ff55
fcd6
fcef
fada
02ae
fc0f
ff86
0241
0426
fc65
0330
fbb6
fe90
fdfd
0421
022b
fbd1
fbc7
02c9
0358
feb5
0039
0219
01a5
0110
fdf1
fd4f
fabf
fe12
fbe2
0080
ff3a
02ce
0579
fdb1
fa67
0011
0363
0387
fd28
02c3
0279
03ad
fdd2
00d4
fcb7
0119
fb83
00b3
fd90
fa62
03e0
fe6b
0262
0273
fd75
fbb9
0119
fd5c
016a
fb12
fcab
0568
ff73
feff
fd92
023c
fc28
01e5
fe9b
03df
fe5a
0591
fa5c
0105
fd49
0412
019e
fd59
049b
fff8
fae1
015f
fa2b
ff08
fc27
faf1
049f
fe02
00fc
fba6
003a
01fe
05ff
fe1c
feac
fd8c
0092
fe67
fde9
0294
0037
fc7e
ff68
fd60
0330
fec4
ff76
01cc
01f4
015a
ff0a
0355
fc12
01d4
01c7
011d
fb39
fefd
02d8
fe35
0480
0359
0020
ff18
01c1
fc24
fc58
05c7
fa11
00db
fcf0
00d6
03ef
00b6
fd78
009d
fdf8
fcfc
017c
0048
00f3
fe34
00b2
01b8
032f
01e0
fd69
0422
0221
021a
fedb
febd
fcf0
0518
fd6b
fb14
03e5
0068
03fe
fc67
ff4c
00d1
03da
02f0
fd62
fd70
01df
fdd5
fb8f
fa8e
ff7c
02d0
fdb7
fb08
fbe2
fa29
fcbe
feae
01c7
fd09
0360
03f2
00d8
0551
01dd
0429
01a2
fff5
fd19
05ec
fb47
fffe
022f
00dd
03cb
008f
0074
fc44
fe37
fc23
0146
fbf4
01f3
fae2
fea9
0532
ff3a
fe24
fc26
fc9c
fea5
00c0
fad1
0234
038d
fded
fe05
fcb1
fd44
0443
ff47
01ee
04d8
0358
056f
fdc0
03dd
fcf9
fbb9
ff5c
0157
008d
00b0
01e2
fe30
ffe7
fd38
fe8d
fbff
0228
026a
ffe7
0394
fcc7
005f
0022
001d
fd80
02be
fa4d
fe0e
fac8
ff9a
fca1
013c
062b
ff2e
013e
028b
014b
00ca
0094
fee0
01de
fa2d
fa89
fce2
0034
002a
fd59
01a2
02c3
0406
fd4a
0108
fbfb
fd66
00ca
00b4
0001
0468
fea4
0357
fa53
fcce
0175
05cf
fcf6
fe64
03a1
ffc4
03e0
03ce
fcc0
0356
0579
fb23
00fe
fd38
01b5
0232
fbae
fcc0
fd39
0175
fbec
fd83
fc4e
fae0
02a0
0103
fdb5
ff06
0120
ff90
03ab
04f2
0516
0369
ffdf
fec4
fb2b
0461
013c
01b4
0352
0005
01b3
fe6e
00a8
006b
0385
fccc
fd87
00e7
0345
fa74
fa24
fce2
fbd9
fb7f
043e
0092
fbfd
fe1a
fc2c
fd80
037e
fef8
00aa
fdd2
fd94
fe7b
fc1e
fc83
ff71
05a1
043e
fac0
012e
00e6
fb1a
fe3f
fc61
fe77
fa20
fb75
fd5a
fd3a
ff26
041d
fc51
00e3
047d
fad6
fd1b
0102
fbfd
fc6d
fd1f
0163
002d
fb23
0369
fa39
010a
fbed
0128
fd13
00d1
0473
0233
fed1
f9a5
fa2b
030a
ffde
feb4
049a
fa34
fba8
002c
0214
fc4b
0169
fcaa
0136
00ad
ff3c
fedd
0471
004e
ff92
ff86
03b5
04a1
008d
0397
fda2
0350
00e1
fc0b
fea6
fe2e
fd50
fe8c
fbfa
fcbc
fc29
018d
00a5
fa2d
ff2d
feeb
0004
013c
016e
05e1
fa19
ffe4
fca7
019a
fbe6
fac3
ffc9
0380
fd28
0067
fce4
fc7d
0059
02b5
0205
fc93
fc1c
fca3
026c
0115
fe52
fc6a
fe54
04c4
056d
fc8f
fac4
fff4
02c0
0261
fac0
015e
fe85
02bd
fd0c
fe45
faef
02ee
fd66
fc16
fe5d
0483
fd8f
ff70
ff3e
fb5b
ff70
ff62
fa47
0258
fee3
03a4
fd8f
fee2
fe9b
0241
fffe
031e
0429
047a
ff00
ff62
fc64
ff84
0265
00a7
fc6d
fd14
03ff
ff11
043b
049f
fae7
0201
00d3
038a
fac8
036b
05dc
fcf8
fc9c
fd22
03e0
f9c4
00fc
faed
040c
036b
017c
00eb
0170
fc88
ffbd
fe53
ff4a
fe84
024c
fe96
fe36
05ec
00cf
007a
0077
fd2e
ff38
0188
03d4
0338
fdff
00f6
01b9
fe0a
029c
fc13
fbdd
ff02
0123
fd6b
fcee
045f
fed6
fb11
fe3c
0478
fec6
fe64
fdc2
0357
0012
0284
03e4
00fd
fc6c
00ba
fd59
039e
ffa0
045b
ff0d
fed7
fccc
fd5a
fce3
fc43
05e2
ff50
fc7b
fe61
0094
fc78
00c8
ff0e
feeb
fae3
0152
0239
fa73
0274
fff7
fbda
0483
fba0
fd4e
045b
00d4
003c
ff58
0044
ff94
feb6
0553
fb9d
026b
fd25
0086
01ca
fc04
feb7
024e
fff6
fc85
0117
fec1
fd8b
0073
fc53
0527
ff8f
fb87
fe2b
fc90
05eb
fa32
030c
fe42
fe5d
fd87
038e
04d6
0202
fe92
011e
fa36
fb1c
fc2a
0523
0554
ff52
fc40
059d
0452
025f
017b
fd4b
01dc
00b4
fd1f
fc83
0429
046d
fbfe
034c
016b
03bb
026c
053e
0177
fea1
049a
00d4
fe7e
ffa2
014c
fe80
0551
fe74
00bf
fb5c
fdaa
02be
fe68
fbb1
fbca
fe9e
fc8a
05cd
02e7
01c6
032f
fcf5
fe48
02d1
fae8
fd38
fecb
febe
fbb1
fe5f
059c
038d
01b5
0158
fb4b
027b
0023
0719
0194
044b
fb4c
054c
051f
0121
fed2
0476
fc14
fe23
0098
ffeb
fc66
fc95
fcbc
fc09
02bf
fd9f
fad4
00a0
01c5
0166
05ca
0253
0512
ff8a
0217
fa98
0174
025e
00cd
feb0
0423
0087
fca7
fe59
fdb1
fdfb
fe9c
fd55
fc0a
fef7
006d
0382
031b
fcc9
fd8c
0302
fbfb
fd89
fe70
01d6
01c9
003c
fca6
fe0a
0512
017c
0582
00f9
fc5d
051b
fec4
0542
faf7
0338
0005
02e8
fff8
fbf6
0272
0258
fcbc
fdf3
02a4
03e6
05cb
fdd5
0104
ff2f
fa22
0435
0356
02f9
02fc
ff94
fc43
05ae
ffa6
01ac
0498
0150
02e2
fbef
0512
0341
fdc6
00cd
01cc
01bd
0580
ff1c
0353
ffa0
fe09
fffe
feee
02bf
fb00
fec4
0179
fedb
0137
fc07
046a
0129
0369
02c7
fba3
034c
036b
ff87
fff7
0311
048f
030b
fe75
0141
fea3
0399
fe56
fc96
047b
025b
027b
0235
021e
fe85
fdb6
fb1f
03e6
0152
feeb
fc2f
fb50
0014
01cb
045e
01d9
ffe6
00de
05a5
fc81
ffd0
fc59
0223
016f
ffd9
0311
fc52
feb0
0232
fac1
00ca
fe40
ffb9
fe6d
049a
0142
fd2e
fb4e
01d8
00c0
0002
fd21
03e0
0140
02d2
0058
ff8b
02b8
fed6
0023
0125
0299
0280
fc21
fcb0
04cc
fddc
ff7d
fda0
007a
040d
fb2a
032f
03a4
fdc0
fdf2
00df
fd8d
fb4b
fd28
faab
fbae
052f
fdf4
fe0e
fa61
020d
fb7b
ff64
031a
fb12
ff61
0422
fb85
fcbe
00c8
049c
0251
fc17
0565
fef4
0077
032a
03ee
fd5e
fe43
0447
0134
0075
ff41
fa9d
fb75
026a
fbc7
00f0
fc46
02d1
000c
0379
faa3
fb3f
ff26
fd52
02e8
fc69
fd06
fccd
02e3
ffbc
0519
0446
0240
0544
035e
fd59
ff19
fbdf
03ab
01b9
fdc4
04aa
fc81
ffac
fedb
0195
02c3
ff62
0347
032b
fb65
012e
fece
fc3e
fa31
fd99
fce8
02f0
0151
ff9c
0107
fe08
04cd
ff3d
fce8
033b
04a1
fe69
024a
00e8
0568
ffde
fb5f
0248
fdcf
ff1b
012a
0464
ff4b
0028
ff69
ff24
fe9b
0014
03a0
00f8
fc8b
03e4
026b
0247
01da
fc88
feab
ffbb
000b
fe44
fa77
0053
fbd4
fc2d
007e
02cf
01d4
feac
fdf9
ffff
feb2
fef3
fa46
01a5
039f
03c4
03c2
0282
0459
02af
fe3c
0451
00b1
fde9
00cf
05db
ffb1
fc50
02cb
ffbb
fef1
0500
04c9
025c
0285
fff3
0029
fc4a
fefe
008d
0273
fc2d
fbba
facc
0213
fe7d
012e
004d
01f8
02ed
fead
0147
fdd9
0262
0246
fee9
0229
0421
0217
0279
fdbd
0161
032a
0228
fe3e
00c5
fcfc
0332
ff6e
0432
ffc3
0487
0007
0180
fb23
fac0
fb0f
00b3
04c4
017e
04f4
ffca
0220
fb19
0439
fe36
fe18
fdf0
fea7
fbaf
0197
00a9
0197
fd27
fdc7
01c8
0389
0241
0146
fd98
fb04
01e2
058b
fe08
fd58
02f8
fe3c
fb48
fb50
00ff
02dc
02d9
01b1
feb0
032d
fe33
fc72
fd84
fa24
fc24
fef7
0383
00a5
00aa
fba8
0089
fb6c
02b8
fb7a
03f2
0112
0011
fec5
fbb2
00c2
02df
fdf2
ff2c
03c3
fb4a
fa53
fcf7
0089
017f
fd3d
ffe8
0296
fb3f
ff2a
048c
fa79
0275
0236
04f2
fbd2
fd68
00ba
fefc
00b4
fd7e
0265
04eb
05a9
01e3
fa48
0224
0550
02ab
0413
0545
fad4
0208
fc78
0148
0389
fad6
014f
0441
feb5
0271
02c9
fdbf
03c0
01ed
fbd3
03e7
ff0f
02d5
ffa6
00ce
034c
ff61
03bb
05d8
ff72
fb9c
00e7
03b5
0327
00d6
ff40
fc28
022d
0016
fe50
fa9b
05b6
fc81
fbbe
02e2
fa74
030f
018f
fcd2
fc17
fbcb
fc81
ff19
01fb
fe99
00c7
02ad
fe0d
0074
fc11
0130
0045
ff4c
fa7e
03e5
ffaf
fe51
01da
0031
fb19
0134
0228
fb9a
0188
02cc
fa0b
fec2
fc71
0381
0288
ff59
ffbe
01ee
0329
007e
039f
fcf4
0150
fa8b
fd50
0441
0065
02a9
fab1
fd5a
0446
ffea
013e
0483
00da
fe0d
ffd8
f988
fb16
03e0
03c9
fc16
fdfd
fd60
0137
fe2b
fe98
03a9
01f4
0209
0480
0110
fb8c
05ad
fc90
fc53
ff3d
0449
006e
ff9e
059a
fd65
fee3
fdfa
fba1
feb6
ff93
007d
0014
fca5
fb28
008c
fab5
0378
006d
fbac
0192
014a
0058
0420
fc15
03bc
fba1
0285
fd7a
0064
04b2
fadf
04df
0301
02d6
fdbc
ff79
01e8
fcc2
0126
0104
04cb
fd0f
fecd
ff39
fc56
0129
fbda
ff7a
0157
00b9
fc4d
0152
0457
fb89
0364
fb51
01b8
021d
fbaa
fbba
feae
00b4
0213
017a
0072
03f6
fcf4
ff30
020a
fb34
fbd2
fdc1
01cf
febd
0086
fcd7
fa35
fab2
002b
ff15
044f
fbb8
03e3
ffdd
0328
ffd3
fab0
ff44
0024
fb7a
00f4
020a
01fc
fe76
0260
ff78
010a
01dc
018c
fe11
008f
037e
00cd
fcd2
0078
0017
0456
fd73
fc6e
0250
fc09
ff7e
fdcb
fcd5
ff79
fec9
fa89
fb7e
fe9b
fb35
fa9e
0084
02fd
ffae
fe45
faeb
fe2b
040a
fbbb
0195
045c
02e7
fd93
fec0
016d
ff61
0274
ffbb
fe39
03ce
fbe6
00f5
04ff
fd0d
ffee
fd2c
fa27
056b
0021
0018
0003
fd5c
0522
ff1d
fc56
ff5a
fb9b
01ae
fd37
fc10
ffa7
0376
0385
0323
021d
0440
fc17
fc36
0123
004e
fc91
fc6d
037a
fa85
fb2e
0586
00f7
0008
0256
0273
0340
fa2a
ff12
fc9c
0131
0203
fd8c
0295
00c4
fd2f
fa63
fecd
002e
056f
0261
feda
0378
fb92
ff20
fded
01b6
03a5
fe82
0160
fed9
015d
fd02
fd07
fd9c
03e0
0397
ff01
fb4c
feb5
ffbc
fde7
053e
fd1f
fba0
0007
fd2c
ff9f
0227
020d
027a
fccc
feca
fe80
022f
fff8
fd9b
fd30
fe9f
03d8
fbd0
01b8
00d7
03c7
fc0a
0509
0340
01c7
0061
0290
024d
fee5
02f7
03b5
00d2
0024
fbed
02d6
fcf7
ff44
fec8
0401
fcb8
fdfc
feea
0231
01ad
0311
fab0
0351
fbec
0459
0494
0241
fd1c
fc51
05dd
02b7
fde6
029a
fc8f
fbf5
028f
0019
fadb
00d5
029d
027a
fde9
fc60
fbf0
0356
fe88
02d4
ff59
fbed
ff5b
fc06
fde6
fcfe
0226
0332
03d3
05ce
fbdd
ffa9
fc16
fee3
fc4c
05a3
0182
04bf
03dd
0148
fbc6
fe9f
fd26
ff39
fd5a
fdd0
02df
03cc
fd20
ffa4
fa6c
fe65
fea0
fdac
002c
fc8f
fc77
fae3
feba
fe21
fcc1
01c9
017b
ff66
fe86
fc5f
ff0a
fa58
03cc
ff26
ff99
01dd
fbdc
fd33
0049
fd64
0131
00c4
ff36
03ca
0099
fc9f
0151
0367
0300
00c6
05fc
026c
fb9b
00ad
041f
fdd4
04ca
0075
fcd6
fc17
f9f4
0040
02d5
fc9c
006e
fea0
0051
ff98
0479
fdac
face
0124
0350
03ab
fdec
02cb
fdaf
fbc6
ff5e
ff32
01f6
021c
ffe7
0238
ff31
fb09
01f0
fe45
01ca
fc43
fcd4
00eb
0259
fcbd
00ff
018e
0211
fb5f
0175
fc67
02fd
0410
fa50
fc97
006d
fa9e
05df
fee1
00aa
feab
fbb0
fc2c
fc5a
fa10
071d
fa0a
02eb
fea6
0386
ffc2
fea7
0023
039c
00ad
fee5
0049
0413
fcda
ffd3
fd7a
01bf
ff85
fb38
ffed
fe8b
fd93
fb21
fecb
fe59
02ff
0236
fec2
fad6
0507
fe14
0543
0026
fc0a
0303
fd43
fa80
0252
fcdd
fbe6
ff01
02c9
fe30
fbdb
fbcc
fcb1
fc49
fbac
fb73
fc90
0379
fc54
00ef
fd57
0038
02c1
fbb1
fe7d
faec
feba
0097
fc1d
fdd9
fd1b
00b2
0243
fe9e
fe7a
fe3f
0418
fd16
fcdf
014e
03d6
0387
ff1b
001e
fc52
ff52
fe46
fee5
002a
02a5
fcda
00aa
fdb6
fd7d
ffc2
fbf4
0263
00f3
021b
00d4
054f
0377
04c7
0392
ff77
02a9
032a
fdfe
0086
fd93
facd
02d8
03be
fc4d
fc99
fce3
fc83
0432
000b
005c
fe44
fcd2
0113
fdda
fe9e
004f
0226
fe78
00ce
0399
ff51
013b
fcc4
fc38
fee0
03a0
0006
01ba
fb40
011b
0136
003b
fc1a
01f0
fdd7
fbce
ff04
fc90
05a0
ff73
038f
faac
ffe5
fe4f
fae6
fe27
03fc
fc2b
0600
036b
ffb7
fc2e
0172
0303
00a3
fecc
fda4
0094
0553
0353
fca2
fb72
ffc9
0487
0166
01b0
03a6
0171
fc9d
fe1d
ffea
fb45
0104
024a
ff76
fe85
fa6a
fa93
fb85
00e6
fee8
0523
03bb
feac
ff77
fd2b
fc28
fe39
fabe
031f
0377
ff71
045a
0164
0216
fcf6
04ff
058c
fe1d
fc63
0210
0204
fd13
05a3
0475
fc72
fffb
fa37
fd9d
034a
009d
fbf5
0286
0267
0242
0287
fcca
00ed
fef4
ff3b
03af
048b
fe18
ff13
fc86
fd9e
fc89
02c4
0454
feb5
fd34
fe52
fe32
05a1
0059
fa3d
0219
009c
054a
fb37
0411
0107
0103
ff9f
fe67
00c7
fd56
0161
033e
fbc9
02e7
0461
fa2f
071b
010b
fc73
044e
0375
feb0
ff0a
0045
0370
0095
0359
00af
02bd
0174
0214
fe41
fe39
00c1
0417
fee3
ff3a
00c1
fae3
0158
ff05
fba8
ff19
03ad
0455
fbf4
fd83
04df
003f
03cd
031b
fb8c
fa7a
01ef
fe81
fec6
0276
037b
fe45
fb70
03a4
fe72
fa39
fe89
0184
ff58
04b5
03e6
ff43
03a2
fcaa
fcfa
0095
02b8
0078
feae
fbba
fb55
0501
006f
04c5
fe5c
ff7c
fbc1
ff6c
fbac
00bf
0527
0077
00ea
fde0
031b
02d2
0369
ffc7
fbbc
02ba
fea4
fcd0
fe40
fb5a
0258
fbcf
035e
0113
037d
0081
fbb9
ffde
00e0
ff39
fca8
fd93
01d9
021a
ff13
fc0e
fdc1
fff9
fc0e
0253
fe11
03b2
007a
fdde
fe30
fa5a
018e
018e
0224
0234
fa70
fc38
fa4a
0329
fac2
0356
fd40
fb39
ffd0
fa59
fd08
0549
fbbe
002a
fbe4
0014
0310
03f1
ff58
01bb
fc06
01a2
024a
fca9
00e7
043f
05c5
0414
0156
fc3a
0415
fc72
fd3b
ffa7
0280
fbfe
05b6
fd5f
fd4e
05bc
00e4
03f8
01f8
03d3
fe3e
037e
010f
0219
ff90
03e2
00c3
0164
fd5b
ffdb
ff6f
019f
0451
fdec
fe60
02ce
0121
fa12
01e7
0033
02c8
0018
ffc1
05ea
034b
fbd8
01da
0067
feff
0173
04c3
010e
00ba
067c
fea8
fdd0
fd2f
fdba
fdd8
0505
ff44
0321
fceb
fbd4
0169
ff07
fcd0
052e
02ae
fb20
0125
00a3
ff82
046c
0356
fe96
0482
00c3
03a6
fc1b
ff78
fcf3
057f
fd01
0114
fdaf
03a3
0420
ff6b
0252
fd74
0422
fc9c
0569
03dc
032a
0350
fd4a
040d
fd12
fc5a
0147
006f
fc03
fe08
041b
0071
04a9
ff0b
fec5
fe8a
fd62
0157
01ed
0256
031c
012e
fed8
fbf1
fef7
fddf
ffd1
ff4a
05bd
fd3d
fd34
ff52
fb07
01b9
fd1b
055e
0048
fcae
fed9
fbca
fff9
fa25
ff0c
0287
fc72
fe7e
0232
0235
04e0
fb38
ffdd
0422
fba8
0399
029b
057b
fef6
0195
036b
037b
0373
0335
fe1c
02b1
fcbb
0442
0518
faa8
fa52
035e
fe23
fcc0
fc0f
01a5
fc38
fbb5
ff90
02bb
fd8e
fe9c
0209
015d
fb50
0244
fbe6
02d5
05ad
ff40
fca4
fc1d
fc13
fd62
fc98
0194
0126
fbd7
022f
0010
009e
fdab
fc68
fdaa
fd2e
0106
0460
fbcf
fee4
fd1b
0349
048c
ff42
04d1
01f7
020b
fe6e
0311
fc92
fcac
fff3
ff33
fc7b
fc61
fe44
fce6
fd41
ff34
052d
03d3
ffea
0310
055a
fc30
fe31
fb74
fb9d
fe6f
fdce
042c
fc53
0129
fea5
fc85
01c9
fdbf
00ba
fccd
ff34
fc8e
feb8
fb77
03f4
016b
029c
fd14
0484
ff3d
051a
ff3a
ffc4
032e
00ba
fc71
00b0
ffdf
04aa
00b9
fdc5
fbae
0207
fcab
fd95
fab4
02f5
ffa3
fd8d
fbb7
fe2c
fdeb
02a3
0321
029b
0295
feb5
fefa
02f4
0365
00b5
fffc
032d
035d
00f3
fd99
01a4
0231
046b
fb5f
00e7
0134
0143
fbe0
03ec
fb46
febe
0241
0376
fada
fdd2
0227
fc14
fce8
fa90
0445
feb4
fb53
056d
fda0
03d6
034b
03d9
ff3a
013d
050e
fd47
fc4d
fc06
ffa5
fc40
00e1
fe91
0291
fd23
01df
01ca
022c
fbb4
00ae
fdb0
ff9a
04de
fba3
04b6
0071
fec3
ffc9
fedc
02e1
01a8
0380
fe11
02e3
0038
0383
fef9
fb54
005c
0306
faeb
faa3
fe19
fb2d
fa62
fbde
fb6c
01b6
03a7
fe2a
024c
faaf
059b
fda3
fdfb
fba0
01b1
027b
045f
0333
ff46
fcd2
0585
fa2a
fd74
fee8
0310
05d5
fcb1
03f9
fd2c
fecf
fd21
fdb0
fd33
fddc
fda0
00b6
0093
0393
ffaa
fb2a
fda2
fd54
fc48
05a4
ffdc
029a
fbd3
ff32
fe7b
ff0d
ffed
0221
0031
fc2f
fa8d
fffb
fe63
fbe9
02dc
fd4a
01a5
0284
feca
fe0c
02ba
fe38
fe60
fb11
fa36
ffb3
02aa
feae
fadb
fda2
05ef
fd5c
00cd
00ed
ff1f
fe06
fc5b
0457
fe10
03d9
fe68
ff54
0186
ff11
0202
fbd0
047c
fee3
0566
fc13
012f
fbf5
00f2
0252
014b
02b4
feb2
00eb
0359
fe26
0331
fd34
fed8
002a
ff56
fbb9
0490
fe16
fae5
01b8
fb9c
fe08
ff69
0334
fd25
0214
0082
ffd8
fb79
fce6
fe39
02b7
fc1f
00bd
013f
fb56
fbe0
0016
01cc
0324
fb0c
0332
fd45
fe37
fbb6
fd43
0281
fe25
00b5
fc20
fca0
016e
fc37
fcc1
ffed
00bf
fed7
03d2
0367
02c1
0048
fe45
02a2
0283
01bd
fcd9
0224
fe8e
01c4
fbef
02d0
fa25
00d7
0335
fd85
fff2
0295
016d
fe54
04d4
fe48
0037
fdf5
fc1a
fbb3
fe37
fc15
feb2
03ae
fce0
0272
05ef
049a
faa9
fc7e
fbf8
faef
0453
fde5
ff49
0001
0182
02da
03a7
026d
fece
0438
fe84
fee9
fe75
fdad
ff3c
007e
fd55
0366
fc65
04e1
fca0
015f
02f3
fa25
037c
05c6
0382
02ee
02d4
ff74
fdd8
fad8
ff51
023d
fe66
ff33
0576
fcd9
fda5
fa33
01d4
03f9
fb70
ff66
ff09
0524
020a
fc2f
040c
0201
ffe7
fc1c
fde9
fbfd
02af
0420
fe44
00a9
0397
fc94
0080
02b8
fc44
0132
0421
fd57
0312
033d
ffcc
fb2e
fe07
03f6
fc67
0308
ffde
ff50
02a3
fc1e
ff5e
ffe1
02b6
fb91
03e7
02a6
ff11
0725
fc13
029d
0332
01cd
0408
02dc
0320
0162
fb54
0319
0270
0059
0564
fcad
fd35
fd0a
fe08
0447
0276
fd87
0231
fe6f
fe39
ffab
fc16
fd05
0011
00bf
041e
021d
01a1
fe81
0007
ffa7
02e4
fb24
fe9f
00ee
fa75
058e
00ad
02e8
fd65
fdb0
fa6b
fdfb
fccd
03b3
fcc4
fa69
fbab
fe18
fbaf
0422
fc17
0444
feaf
fa37
ff85
facf
0135
fe37
fd96
0533
fb82
fb91
fd48
00c0
fc48
00ea
fece
fe5c
fd27
fd28
0224
0096
fcf6
0230
04b7
02ee
fbc8
01a5
fb30
fcee
031a
04b6
0179
02a2
fff9
ff9f
fdb4
0141
0493
fd92
fd6a
00c9
ffc3
fb2a
ffdd
ff3f
009f
029d
fed8
0179
fe6f
0210
043f
fc90
005a
0456
fdc6
ff56
0337
fdb9
fc08
fd08
fe05
fb97
fb10
04ca
ffc6
002e
03ce
016c
fdea
fea0
fc25
014a
fad1
00fe
03b0
05b8
04c1
0387
fefc
04bf
0084
feea
03db
fb93
fcc8
fcdb
0076
fc5a
fde4
feed
fcf6
fe9d
0198
fc68
0431
fe70
02ad
fde3
01c8
fa79
fcea
042f
054b
fd28
01ef
fe07
023b
012d
0344
034f
ff56
040a
0168
fc32
01e6
01e3
fd23
feda
0072
faf9
02e7
fb6b
02c7
fecc
fe4f
0216
fe90
ff0d
fc47
fc16
053e
027c
ff49
02b0
fcdc
04c4
03d1
fb69
020a
fec9
fc9e
00d8
0235
05c2
fd17
01a0
fba7
fb8a
0087
0023
feb6
ffa9
fc84
fb3b
00a5
ffa3
fd6d
fdc6
0085
00f7
fba3
0188
00f1
03b6
037a
0226
0342
00dc
01c2
0436
fc9d
fcf7
fcb1
044a
fb80
fc7b
013c
0402
0060
0345
0208
fae5
01cf
fed1
fc63
02fc
fd9d
ffd0
fd0e
fd6a
fbd0
feb0
0425
0029
0004
fb0f
fdef
fd7a
fe75
fe0c
ff76
fb8d
036b
fcf8
0443
0153
fc98
048b
fc86
ff6d
03fc
0205
fee9
054f
ff81
01bf
fd31
fb0c
0304
faec
0037
fb85
fe2a
0530
fe52
0264
026f
0037
02e9
fbfb
fbe7
044c
0433
0397
0339
0022
ff51
fcad
fb11
0564
fe22
01ad
fc84
01b4
03ec
ff0d
044e
fc68
fe2c
00f7
0254
fbac
02a6
fbe9
fe50
0006
0125
0075
fd3b
fc91
00f0
02be
fcd6
0767
003c
fc47
02b3
ff02
037b
fef1
fc5f
05c8
fe77
0320
0098
fc7c
04bf
02dd
fbff
ffcc
00db
017c
fea7
00b4
009f
fb1f
048d
0467
ffcc
feba
fb87
022c
fedc
025a
04cb
01f4
0130
fdc8
fe8b
00bb
ffbe
0212
ff56
fb9b
fc08
feb7
043d
0107
0127
021a
fef9
fa0f
fe0c
0036
fffe
0064
fcb3
03f1
0202
0279
fd48
fcd5
00ee
fa72
0176
fcbc
0072
024f
01eb
ff50
0313
00f8
fc8d
02bd
0017
ff1a
fd4c
ffe8
fe25
020b
04f6
03c3
01d6
0059
fb7c
fa93
ffa5
fbde
fe00
fc0b
000f
009c
02e4
0252
fc6a
0276
018b
0325
ff98
fbc3
0546
fb11
020b
0165
fcfa
fe41
fa95
0420
fa91
0106
00fe
03f3
028e
fbec
012c
01b6
0050
ff80
0087
fdf2
03fe
ff37
fabf
0490
ff78
0404
fc6f
fd62
0341
fd52
01cb
0202
fecd
010e
fcbd
fdde
ffae
fe15
fffe
014a
029c
ff94
fe38
fb6f
ffcc
01a0
01f7
026d
fb06
03d9
02da
045d
fc46
0075
fdf6
fbde
fd23
014c
ffd5
fdb0
05a3
fdbf
fbca
fdb1
05df
fa27
fd66
fd39
fbcc
fbb1
0426
04f1
fd52
0176
fd52
fc1c
fc8c
0273
00ea
00c3
fcc5
045d
fe1d
fc90
fc9e
03c9
fbb2
00fe
048b
fd5d
00ae
022b
040a
05b3
0000
00f9
0448
fbbe
033d
0081
01a9
00d1
04d0
fe4e
fa86
ff48
fe16
02ad
008b
fe6e
ff54
fef8
fb9c
fb5c
fe82
ffe1
fc54
0463
ffc9
04e8
0232
0211
ffab
014d
fd26
fbc6
ff13
0427
fbfb
0229
0463
fa51
03c7
fc02
0215
fc48
0175
ff8c
005b
fe76
fab4
fcd0
fd3f
fd63
04bc
003f
0107
0315
fedc
fc43
fec3
0360
0359
ffbc
034e
022d
ffd6
0060
0179
01ba
fa18
fa04
0067
0047
03c9
026d
059e
fdb5
03e3
ff97
fb0f
018b
0560
fbbf
fdb9
fc22
0282
00db
018c
00d7
fbde
faa4
02d1
036b
0549
03cc
0387
ff13
05b9
fb57
ffbf
fc41
fc91
fc8f
fa5b
ffe5
fd08
fb6e
fdc0
fc4a
ffab
013f
fa4a
fc13
0280
fcf1
0129
fad0
0288
fce7
0354
fd74
03fe
031c
fcb5
fd85
ff97
0355
fed1
01f4
042e
05cd
ff41
ffb8
035f
00d0
fcc7
058f
039f
0527
0567
0127
00db
fb46
0035
fb59
fd51
fc5a
0230
03cd
ffa3
042a
036b
fbcd
030f
016f
0181
052a
0264
0135
01f0
030c
fd24
0518
0020
fdc4
05da
032c
0149
fcd9
fbdf
01c2
0218
fd23
fc72
ffc6
fb84
05ca
fb0f
03fa
fd8b
008b
fe63
fba3
fbea
0433
feba
04f0
0215
fd14
fd9d
fbe5
012e
fdd9
fe4d
fe5e
03a4
048e
010e
fb05
fa6f
ff05
04ca
0176
0113
fd83
037f
fb2c
fdd1
fa4c
03d0
03a0
ffa2
fc2d
fd25
0099
0099
fcca
fed0
fdb2
02a1
fe41
feab
fcae
fdc2
faeb
043b
fbf2
004c
046c
fe68
0397
ff07
fb0d
feb4
04dc
fd65
0273
ffaf
fd3e
fde7
05ba
03b9
ff34
fe22
039f
fdda
fe40
fee8
02e1
fff0
00fb
fe4f
0471
02ab
00b8
fc66
fa33
ffdf
fd17
fba2
03df
fd6e
02a8
fd54
05df
fd24
fd18
fbbc
fbe2
0129
fe62
0042
fda3
ffb7
fcf1
032f
ff1f
0044
0362
01ab
fb7f
fddb
fe41
ffb6
fd79
00d1
fdc9
0388
fdcf
01b0
043f
0008
05d0
0423
fea6
fd5e
fea4
ff00
fdeb
0143
031e
fb9e
fa82
03f9
03d2
fe35
0250
0073
01ec
fc9e
fdc8
022c
00ad
0212
01ad
02ee
fdb4
0304
fe89
fbf5
fc88
fc39
fbcf
fc08
0117
fd68
fbde
0095
05b3
fcbd
ff8a
ff15
fda7
fdd7
fe2c
fd32
fbbe
0047
fda4
02b7
fbfa
0389
0456
0159
ffa5
fef2
0041
fd96
ffca
02c8
ff81
fc4b
fecb
fd36
ffc8
01b0
0571
fbd8
02ca
fdc9
fd58
01ff
0170
fbff
ff2f
004e
fad7
faeb
0194
fbec
fef0
00f4
0268
fef6
0324
000a
042f
005a
0058
0431
fd35
05b1
ff79
fb99
fca9
fc27
0370
fa80
0244
02a1
0216
0294
05af
038c
fe3a
ff3d
02b6
fa77
ff40
0365
00f1
03f5
0110
04fd
fdae
fc83
01b4
fe56
0298
fbdb
fc76
00ca
050a
00fd
03bf
fab8
fa48
01ad
ff2c
05b4
0486
00b0
fe48
02b2
fe01
01fb
fb33
fffd
00ec
fe68
0147
015e
fd61
ff25
fc52
011f
fd86
ff07
fbdf
0059
03f9
043d
000f
01f4
058b
02fe
faa6
023c
fa9a
0197
04a4
fe4c
03b4
fbd3
0191
fd24
fd80
0171
0594
0179
0177
fec8
fc97
fd0a
fb2a
01e5
0226
049e
fa17
fcfd
0251
fecd
0463
fa29
02c9
fc35
00b7
034e
027b
fafd
fcd7
ff57
013c
fd2f
03ec
fe20
02b2
faf4
01dc
fff7
fe6d
0112
ffce
fa7d
fce1
fed8
ff61
fba5
fc06
faea
fbd2
ffe4
fbcc
0389
0324
00d5
04ff
fc0a
054c
0447
03cc
ff6c
0475
fb7c
fe65
fdb2
06bf
fc4b
0003
fd53
0163
0315
ffd1
fd84
fc33
fbbb
fa95
014a
faba
fc7b
03dd
fd44
013b
feb9
ffd2
fe46
038a
fec4
fc53
023b
fd8e
0475
fea8
faf7
fd96
fcb6
ff3a
03e3
006c
02f1
fabe
0317
fa73
fe09
fd6e
fcf0
03cb
fcb5
fc04
fe87
02f4
fe00
01b0
fc16
fc52
0178
faa2
fd8b
fa50
00d3
feaa
02a6
031b
fd16
fc0e
ff3f
fbea
fef6
fdec
ff69
01c0
ff15
faac
fd61
03b7
05bc
00d4
fbd4
02c0
015b
0152
ffba
fe1e
05e9
04e1
fd4b
ff85
fb9a
03e3
0379
00b9
004b
0433
007c
05c5
fefb
036b
ff90
0102
0037
febd
fc22
ff2e
05a5
fa96
01e0
fa51
fe7a
0145
fb5d
01b1
fbab
fa6a
fde7
fdb7
fd7e
fe6d
03b3
fafa
ff4f
fc80
0158
006f
00ee
fd4b
fe42
019e
fd28
011a
fe1b
0113
fe22
04e3
fa6b
fdb1
0101
fefb
018e
0213
0228
0428
025d
03b5
0038
ff7d
01c9
0282
fcbc
ff61
ffb8
ff87
feb8
fbbf
00bd
001f
fa32
0442
ffa0
0573
0103
0015
fdc5
fd6b
05c9
0332
01ba
ff54
0532
0277
ffe3
fe64
0504
0036
02c5
ff14
fc63
ff7f
fbc4
fc1f
fd7f
fad2
040b
01a9
01c5
048a
0081
fce4
fd98
05d4
fa4f
fd3e
00e8
00c5
049a
fd3c
02fd
050e
fee6
0000
fba0
011b
0415
fcfc
fc14
fedd
0364
0429
fc21
00f5
0238
fa73
00b4
05db
01c9
fa40
0098
fadf
004c
000a
fb1d
0076
ff5f
0325
0213
fd13
00e5
023e
015c
02e7
fe61
04c7
0430
fba3
fdf2
fb7c
ff0e
febc
fc5b
05a0
fa81
01d6
027f
ff13
fa25
007b
042a
fe86
0348
012f
0452
ff83
02f0
0024
fad9
010b
05b5
fce7
0123
fd67
03b5
01aa
0445
00b2
ffa3
0330
0121
0240
0146
003e
03b0
05de
fc57
0096
fec5
fdf2
056b
05c8
0012
fe3e
0081
00dc
fc2c
0107
fabd
fc61
002b
fe63
04d8
02f3
0034
fcc6
03e5
ff5e
ff0f
0290
ff90
fdcd
00cd
02b4
fce4
fc59
fa3b
041a
00e2
02e8
01f2
0179
01af
ff16
fcaf
ffda
0296
0331
00dd
fad5
fb1e
fdf6
ff0e
01fa
fe47
fad0
0449
fb86
0020
04b6
01c9
068c
02b6
0401
045f
00f9
007b
fbdc
0152
ff2b
fde3
fe5d
0375
027d
fc29
04c9
056c
fbb9
0097
fe38
02cd
004b
fbc9
fcc8
0480
ff07
04d3
fcb2
0379
fcd7
01ad
043a
ffcc
024d
fe4b
fd3f
010a
014f
04b1
0196
ffa7
05c0
02be
0146
feac
0210
02b2
fe8c
fe35
02e9
006a
02a2
ff2a
fa7d
0277
047d
004e
ffd5
00ff
ff59
03ba
fe45
0249
034c
0205
03a5
0127
fd4d
ff85
0500
fff9
00d3
054b
005c
01e4
fa6d
fd23
02e6
fe49
004d
023f
030c
0328
fce3
fe3f
fcad
00cf
0140
0532
fc74
038f
0537
fb9f
fb43
fd96
fe79
0035
fd44
fe90
ffd8
ffba
00d8
fdae
fd93
fc9f
ffa9
ffdf
010f
fc81
fff0
fc5c
fbdb
0339
0257
0048
ff8d
03f9
fd39
fb1f
0583
011a
00dd
fe4f
01ce
fdb3
fe43
fd9e
0313
fa88
02e2
fb71
ffe7
0072
03d9
ffc8
0492
fc54
fe12
fb15
f9f7
fff6
fdda
ffd6
023c
fbdf
fad5
ffe1
0403
fac5
0215
fd7c
0089
0450
053e
00c1
0021
03aa
faa2
fc51
fd05
0138
ffcc
04ab
fbab
fd00
006d
fc21
01af
fa28
01f6
0463
fdb0
fd12
fdff
fcde
02bf
0307
00d6
ffa1
fefd
01a2
fc1b
01d5
feb6
00e2
01cc
fff2
fd75
047f
fac1
049b
046f
02b6
0016
0449
fb01
0171
02ac
01a3
049f
fd3b
fea6
fb1b
ffa7
ffa2
01dd
fe06
05e8
0254
0037
fb3a
0002
0001
ff5b
0414
0407
041c
fecb
fe7c
fcff
01bd
00ff
023b
fb7c
0210
fdcd
0293
029f
fc3a
fe60
fb9b
fb50
fae3
0425
fda0
01c8
faf0
0571
0255
fbe2
fc6a
ff6f
fc05
ff50
fc42
faf7
ffe3
05a7
fe48
0320
fd00
fed8
0229
fd2f
056a
fc41
fa57
054b
0354
ff2f
fbcb
fd07
fd19
fe46
0020
0157
0388
fb78
0206
fd8e
0026
fd19
0402
0195
fbaa
fd3b
037f
042c
faf0
04b6
0286
fcfc
011c
fbb6
0241
ffae
024e
fdd8
ffb3
feba
0347
fa82
fd2f
0388
018e
fff2
006d
02e9
fe6a
fd6d
fd67
fdbc
ff75
feba
0248
fe06
fe2d
ff02
037b
fc60
fcf9
00fc
fb28
fc12
052a
ff8d
02ec
0069
fb47
ff30
ff54
0575
02b9
fbcb
0357
fcd6
fba1
fba9
0271
fe57
febd
fbe4
01a6
03bb
02ee
03b0
fc1a
ff28
fcdc
00cd
00d3
fbc3
fab9
fe0d
fbf9
fcdb
fd5a
fdf2
00d4
03ae
ffa7
0557
0393
05ca
fd65
fa36
030c
fba5
ff55
fcee
0149
02c5
0359
feb8
ffea
023c
01bd
fea0
fdab
fe34
ff3b
ff34
0004
fa56
0387
0076
fa70
00e2
051c
fe52
0156
00c8
0529
fb9c
fe42
0358
faae
fad1
fdb9
01d1
04e7
04f9
fdec
fbe5
03bd
fd2d
fb93
fd9c
0361
fcf5
ff37
0024
0219
00ca
0176
fac5
facd
02a6
017d
fc88
fba5
0101
fb6c
fbf2
ff1b
fdd3
02d4
fc47
0021
03ec
00b2
0296
fbd5
fdbb
0205
0246
fc46
fa55
fd66
058e
fc42
034e
fcaf
fd6b
00c5
ff3f
00d9
0059
fee0
ffec
fdd4
04b2
0594
0459
01df
03f7
04d5
0105
faf6
fe56
ff5a
fea1
ffa6
0574
fc41
04ce
0185
045c
fa46
fad2
00df
fbd9
02a0
00ca
0238
0406
fd36
fabb
ff08
fb97
fc2e
fab2
fd60
0176
ffe6
0036
fb32
0118
ff12
fd67
ff42
fc3c
0040
fb80
0059
fa9a
03f8
ffd2
029b
016f
fd90
fe61
fb9d
fd28
03db
feb0
fd27
040d
fc1b
fba8
0155
00d5
fa99
ff2d
fd25
029b
fcee
027e
02a8
ff2c
006f
0142
039d
fe46
fe42
01a3
02a3
0222
fd2d
03df
0243
00ab
fde9
fd0c
fa45
02dc
fd24
000e
fe43
fe2d
fec9
feae
faaf
0108
fbb5
02d1
0181
fead
fe3b
fbc5
ffa7
0038
04b0
01ed
fead
03cd
050d
01dd
0206
03a4
fe08
ff9c
01ed
0344
017e
fd73
fe04
04a9
003d
fdd5
fb25
0091
0350
fc14
fbee
fab6
fa06
03bc
0031
0524
05a7
ff9d
fbdd
fdd9
023d
0022
fd0d
06b6
fe65
01e5
fe23
fe46
fdaf
0040
fd8b
0573
0449
fc80
fccf
fd37
0352
04ce
04f6
fb74
fe18
ff75
faeb
fd11
015a
fe99
ff2f
fdbc
fc77
0391
fc94
01fb
fc4b
ff79
fd6c
05e6
058f
fee3
ff83
fa74
055e
01b2
0440
0239
00d7
fc47
fcbb
0024
ff77
00da
041e
01e0
037f
0485
0017
01cf
021d
0253
009c
fe0c
0141
0406
022e
0403
03ce
0165
ff74
fef7
ffa7
fe60
fdd0
0310
0122
fe50
0547
ffd0
fcb8
fc1a
fc18
fb0d
0153
0348
fbb3
fdea
faa5
00da
0176
021d
00c9
020d
02b3
0360
fe7f
fbea
02b5
ff6d
0088
fef1
02d8
046b
02b0
fbc3
ff3f
fa99
012b
038e
fd40
01c5
ff7c
004e
ff1a
fd7e
faa8
0200
fad1
01f2
0423
fbd5
fec6
ff49
0242
fd30
021d
02a2
016a
013d
ffe5
fd1d
ff46
03a0
02df
072c
fbbf
fb84
029d
031e
fe20
0057
0171
029f
fd9f
ff9c
fd78
fc32
ff9a
fcb8
04ac
009f
fbfc
0086
ff91
fcbb
fc6a
03d4
0083
ffce
03d0
0523
02e4
fcfd
0615
04e9
fd3c
0241
026d
00da
fa92
fa59
05ef
fcd1
03cb
033d
02bd
fbce
fe71
fd54
fe16
fc6f
0069
fe08
030b
020e
042c
fccb
fc27
fe76
03e2
fc29
fe0b
031c
02a9
0005
03c0
026c
fbb9
0096
fe29
0427
fe75
03d1
0100
053b
017c
ff1e
fe5b
ff87
fb36
fefb
03bb
fc50
007f
0128
feed
ff2c
00c0
ff2e
ffc3
0228
fedd
035c
ff9b
010a
fe16
fcc7
0609
02d8
0428
04f1
0040
02b8
fa4c
fbd2
fe58
0176
fd19
fcae
017c
02a1
feb7
fcb9
fc17
015d
0152
fb09
028c
fddb
01bd
0154
0009
050b
035f
fdbc
ffb7
036f
fbbf
fbcc
0513
ff19
fd67
0679
0147
0378
0005
002c
fe20
ff47
ffc8
fc86
ff9a
01bb
03e3
0439
053c
035a
fda7
fb9c
fb0f
ff44
ffa3
0466
038d
fb62
0317
fd45
02a0
042f
01af
fcd2
ff5b
fe16
fdf7
015a
00e2
ff38
fe54
045a
0019
fc20
000e
05b4
fb7b
fe84
fe0b
0516
ff0f
03ec
fc32
03cf
fcdb
0319
0184
fa3e
fd4d
0375
fb2b
05cf
fe5a
007f
015c
fce3
025b
03c7
0346
06c3
fe60
fb6f
01b2
021a
029b
fdf4
0304
01a6
0128
0324
0240
0459
025d
0098
fbc4
01fe
0003
ffee
fdfa
fe9f
037f
00b3
ff6b
0179
fce5
044b
fbae
0330
03c5
fffe
ff83
fe67
058d
fcdf
01a8
0084
ff46
04ec
fd03
fdef
0329
fccd
fc74
0051
fef7
ffb1
012f
010e
ff23
03b2
fbab
0407
0209
006a
fc10
003a
03ca
0290
fea5
fe86
015a
0126
fe13
fdab
fccd
01d7
fb55
fdea
ff93
ff24
0279
033f
03ae
febf
ff3d
03ae
0487
04c2
0080
0351
0081
001d
042b
fd8a
017b
fd43
04e4
04e9
fe39
0112
fc27
fcb7
02e4
fc29
0362
002f
fec3
ffc6
fec3
0316
fd21
0242
fa17
01b9
0027
ff49
fbbb
03a5
fe38
fe6e
034d
0286
059a
ffdd
0229
fb0f
029c
fe57
03ac
fc7a
ff45
fd91
0435
03bb
fbcc
0415
0446
03a9
0110
01bc
ff1c
fbe2
fc81
0147
0184
fbea
fd10
fd0f
012b
02fe
02e1
0453
fd26
fd45
0057
00db
0205
02dc
fb34
fbb9
0073
fe71
0330
048e
027e
0062
034f
04a5
ffa4
05ea
0349
fed6
0245
fb49
fe72
fdea
fcd1
ff49
032d
00fb
ff09
feab
fcbc
fd65
fc23
ff8a
fc8f
0407
fcf6
fce1
fd73
feab
ff86
0388
fc15
ffc9
fdb5
ff7e
0191
01dc
fbb2
fda8
fbd8
024e
02cd
03b8
045a
05c0
fed6
050b
fe2c
02b3
0322
ff26
ffab
0194
0213
fb52
00be
ff9d
fa43
00ba
fb74
fd6c
fd54
fe32
053b
0124
fcec
fccb
fd3a
01f9
0514
fdb6
fdcb
0229
fae8
fd15
008f
00ff
fdf0
0323
fa5f
fed9
043d
ff0c
ff4f
fa87
fdd6
0276
0503
fc50
fae6
fa8d
010e
023d
0203
fea5
0195
fd9c
fed4
fa96
fbed
057a
ff3b
fe2c
ff1a
0299
fbec
ffdd
02f5
023f
0346
fdba
fce6
01e2
fca0
fdaf
0175
0437
0594
fcfc
fe2b
004c
faf7
003e
0014
fd68
fc53
0401
fdc8
01f3
fb5d
fc96
001e
03b1
ff7a
fece
0351
fd65
fc25
03c4
0227
fd6a
fbc8
fda6
fe3b
fc0e
0379
fbf2
0070
0426
fd4a
0087
fda5
0179
fa8f
02e3
0267
fd8f
fd36
036c
00dc
fa63
fc29
fffc
ffbc
0205
039b
06f8
0287
fcbb
fe86
fc6b
fdd4
ff03
fd49
ff5a
021c
0268
0364
0337
feef
fde6
04ad
02d4
014f
0055
fc48
fbcf
0379
fc0e
0124
01dc
03d7
05fa
fcf4
03bf
012f
03c5
fdfc
04b6
0139
0306
fb30
fc71
fdc6
ffbc
0294
fe4a
014e
fdf4
004d
021b
fc76
01fb
03bd
ffeb
0237
02d0
fcff
012e
0074
0115
fea1
fc1b
0557
fa19
0289
008d
04e1
fe9e
0428
067c
fe02
008a
0262
ff34
0434
ffeb
0020
013d
fa5a
fab5
fc9d
fe59
fbdd
fd9e
003c
fd61
ff3a
fcb5
fd3e
016f
fa0f
027f
0153
057b
0022
fc8c
fb8a
fc03
ff41
fd9f
fd76
01a3
febb
fe31
fcb3
035d
0187
052c
fda0
fce6
027b
0357
01c1
0100
0103
ff89
fd7b
ffed
0302
0140
fe61
0138
fc39
03d1
01f4
031e
fc0a
fc91
019c
fd76
0438
fb9e
ff87
02b7
fe8e
fa29
ff75
fc6e
fc04
01ea
0257
0502
fc25
fcbd
ffd6
fae7
fcfe
ff94
feed
0097
fec0
01c0
fac3
fe95
020a
fe3e
fff1
fc88
0027
fd0e
fbb9
0198
037a
fe24
fd88
02b4
fdca
ff7b
fdb9
ffa9
0124
ffbb
fc51
fbfa
000e
00db
0422
fe2e
009a
0444
fe39
ff99
020c
fc4d
033a
fe17
03e2
ff34
0368
048f
024d
fa91
fddc
fdd0
ff05
0461
fc35
ff78
fc2c
ffe1
0386
052b
fd75
0023
ff54
fcbd
ffcb
00c0
fce7
ff9a
fc76
fca1
0150
fbc0
fd0f
00dd
0298
047d
ff93
fcf9
fc90
047b
fbdb
fceb
fe65
046c
03dd
0019
fe5a
0248
057b
0219
fb6f
02f8
ffd1
0525
0281
febb
0374
0152
fbfd
fc19
ff53
ff4d
01eb
facf
0241
fea9
ff30
fd8d
fd88
fe64
ff34
fed9
01fc
0177
0181
fec2
02a8
fbc2
fde6
0186
fa11
03cc
fafd
ff11
024d
fba4
fcdf
05d6
030b
023a
03fd
fa7f
016f
0087
0369
0273
fc6b
036b
fa62
fd89
fb5c
005d
0043
ff21
03cf
041d
ff7d
fe0d
036a
0175
ff59
0290
0104
feca
fe81
ffa0
ff89
ff12
0105
fd2d
fc55
0225
0391
027c
0394
feee
fe12
02a9
02dc
fbb4
0213
03b1
fc86
fca5
fa52
00f9
02ae
fdea
04ff
00a7
ff03
0267
fdaf
0191
038a
03b1
fb55
ffdc
050b
ff08
fdbe
fd3f
0121
fbd7
fe23
01e2
ff34
036a
fd7c
fcc0
fc7c
0195
03ac
fcd2
fd76
045f
fd2c
0326
056d
feef
fb64
fbf9
0435
025c
ff6b
ff40
0229
0177
0229
faea
03ab
fe29
0143
01ea
faa8
0072
041e
05e6
0389
00e0
fdc2
fa44
fd49
04b6
fe3d
0176
ff20
ff94
febc
ff8e
049e
fb14
fe79
fae2
0442
ff25
fc9f
fe88
fbe4
fc1b
01f6
fb94
005c
0053
fbaa
fc96
0174
fe62
fc15
0228
0146
ffd3
0359
00b3
fb61
fa3b
fdb8
fe03
03fb
fc19
ff7e
fdca
0477
051a
fc72
ffb3
fd6a
0321
fcc7
fbdb
05ca
fc93
fe90
fc5b
02d0
0087
fc3b
fcc6
00c7
0282
0061
0186
fe69
fb68
02d2
032d
01bf
0475
004d
0222
0289
ff70
fe92
01fe
01aa
02f1
0038
0019
fd33
0030
fa31
004c
fab1
fa91
0028
fcb0
03b0
01b1
0166
fd53
fd59
fc06
feb8
fbc8
ff18
01e7
fd7c
fd45
0150
fe53
026e
0450
fa99
fb72
0041
029e
fd43
05ed
00de
fc80
01d4
fb8a
fbd9
05a0
fca6
0398
0244
fe65
fc00
02bd
00b2
feea
fe20
fde0
01c5
ffd0
fa82
ffda
00ff
028c
fcd5
fd3d
01b7
02b9
0003
05a2
fb85
fd35
fdfa
ff69
fd2f
0181
ff92
fe4d
0228
0051
03c9
ff59
0211
0379
fbbc
01f6
002a
fbbb
02cb
febd
fbcc
00d8
fc81
0450
fe6d
031d
fa2d
043a
fda5
041a
fb1f
03e7
036e
ff5b
fdc2
02a0
042b
02e0
05ff
fe34
fe18
0035
fd43
fe28
02b0
0119
02d8
fb71
0410
fcc4
fc63
008f
0170
fd74
fdf4
ff47
fad7
fe2b
05c7
0130
ff9d
fdc6
fcb1
fd70
ff65
feb5
04ae
fa8f
0438
ff2d
fd32
fd82
ffcb
05d7
fbcb
0350
007c
fe4f
fc57
011d
fd5a
0182
fe82
003f
fadf
ff1d
01e4
0563
02d1
ff0f
0412
046f
0293
027a
facf
0015
fc2f
0158
020b
fbca
fe5f
fb95
01e9
fd95
044e
054e
fea3
0045
0431
021e
036c
0407
0231
fd2e
fcac
006c
ff10
00ce
fe0a
03af
fe2e
fe44
ff3d
038d
fded
043b
fa8c
fc25
0287
0030
0404
02ae
fe41
0251
0490
01a6
0041
062e
0186
029f
ff67
02fa
fc91
ff0e
0162
03f0
0436
fdf0
03fc
02bf
01ab
05e3
fe4b
03cc
03bd
03c1
004e
0144
fe32
ff55
fd31
fe63
03c2
03cc
faf4
00bd
fecf
0290
fd4b
fd52
fc04
0082
0040
03a8
0370
0328
fca1
fc6e
fc43
fecb
011f
fe2e
fe58
006d
fbb9
0100
0299
00e7
fff1
fc70
fc00
020d
008a
02f3
fd71
01c2
04e2
ffcf
036b
fc87
fcf6
0423
0431
ff5d
ff80
0506
03aa
ff8c
004e
031d
0115
01b1
fa35
fa61
ffcc
009f
fd4e
fad3
0353
00fc
fda4
febe
0089
0133
fc19
ff44
fee3
04e7
00a5
fec3
0530
00b8
056e
0432
ffba
02c3
02e8
024f
01ef
0342
0321
0482
fd17
ff32
021b
045c
002e
0110
fc6f
01b2
fc5a
0005
0013
fca6
fe58
0201
01d8
0387
0054
fa7b
fe05
0218
fbf0
03e8
ffaa
00cb
fa35
ff7e
0029
05b7
fd4a
fdca
0381
0411
01bb
f9da
fdf4
feed
04aa
0324
02f9
feb5
02be
fac4
fd0c
0292
fd43
03e1
fd50
024a
fd0b
ffbe
fd7e
fb6b
0616
fe56
fd8f
03b4
023e
00c1
01b4
0097
0549
fdf4
010d
fcb5
000c
014d
01f7
fbbc
fa51
ff5a
02ae
ffa8
fbab
02f8
007e
028a
02a5
0485
fb24
ff4f
003f
014a
fffa
0226
0126
00b9
0120
04ca
ff58
fc33
fd5d
fd9e
01ec
fe2d
03af
fbbe
02a1
fe30
fcd0
fda5
0218
fe82
ff85
02e9
fa7e
0190
fcd8
0487
ff06
fbc4
0154
00d9
0397
013e
01a0
019f
00d8
ff0f
fd29
fd7f
fcd7
0076
fc22
036f
01af
fdc4
fa64
ff70
0347
fc3c
0090
fd3b
ff5c
fd4e
006c
02f6
fdf6
fb80
ff22
fe85
ff52
0533
ffb2
003f
00a3
00ea
fe97
010e
fbfa
0590
0419
0377
00ab
005d
fe67
0192
00e2
fc60
00f7
02d2
fcf3
fca9
fa92
fada
0342
00c8
0045
fee7
0390
fe39
fbea
fbed
fbf2
fe6b
0420
0064
fbfa
05f9
ffbe
01e0
fdb3
ff8e
02e4
fe87
fc2a
ffd2
faa0
0341
051d
0180
fa69
0213
0097
fa81
fe88
fee8
0250
0454
02a6
ff71
fbe7
0438
fd77
fa32
fdfe
fc5b
fbe4
0103
ff97
0473
05b4
fa39
fece
013d
fb0a
ff73
fd33
fe5e
fb29
fbd0
fe54
fbc0
0351
03b3
fdfb
f9a2
03c5
fe12
04dd
0553
03a5
fd90
fbcd
faa4
002b
fd94
fa2e
facc
0371
0214
04d8
02d6
02f5
ff0b
ff68
fdf6
0068
021d
02d0
028e
03d2
0378
0097
01ad
0452
ff2d
fe7b
fbfc
febd
0549
fc1f
0015
0274
02af
fc5e
fe61
fc7b
0043
fdb9
ff2f
ff27
fbc4
00fd
03a9
010f
0269
fe4e
0501
0363
fe08
fde7
fe2a
02a6
fdc6
fd8e
ffbd
046b
fe7b
fdcc
008d
0303
fdcd
feb5
ff97
fe82
fe38
0406
feea
fecf
fedb
feca
fb55
02d2
05cb
ff72
fc27
fa75
fe63
02de
fe62
fff3
01a8
fc09
00eb
fb0c
0224
01bb
004b
0376
014f
0214
fbe6
fedf
fd18
fb82
fc2d
feee
fa20
fe01
03c3
fb2c
032c
01be
003f
03bb
fe57
04e2
fca9
05de
fdb8
052e
01c6
013e
fee4
0085
00e3
0397
febc
025e
04f0
feb5
ff90
fd8d
fbde
039e
fb8d
0108
0418
030a
ff29
017e
fe66
0451
ff7f
ffa9
faa9
0311
0098
0467
02ed
0200
0466
fe02
fe32
02c0
01fb
01f3
faeb
0413
02ac
0431
00ef
037f
ff58
0185
036e
faa7
fd03
ff15
fbb6
038f
fd64
0356
fbce
fcc6
fcd8
fe5a
04e1
fc61
0540
04c5
fec8
fe86
fb9b
ff2e
012e
fb52
00e8
0052
01f4
02f9
ffe0
00ae
030a
041a
0316
fd0a
02bc
fc10
fa23
fc49
0436
0441
fb1a
fed4
fce0
01af
fb89
0105
01b8
0464
fc1e
029e
02e3
ff55
0125
01cf
ff95
03a2
fc33
03c9
fecb
01df
0092
0311
ff28
fb47
fdf7
feeb
fae1
0371
0368
0431
013d
fad2
02f0
fbad
fe39
00f6
fef9
fc6c
fd18
0386
0198
00c2
fa67
fe22
010a
fc3c
0286
fba1
01d4
fca7
011b
fd83
feed
fde2
0261
05a9
0089
0395
01a8
ff0c
fb7d
028c
ffd3
025b
fe2c
fc3f
fa59
fed6
048e
fdd1
fef0
006e
00a5
ff5e
fd60
fb36
fc66
fbef
00f6
03ed
0364
0083
facc
fbd9
034b
0075
017c
fca9
ff95
03f5
000f
022f
0055
fa3f
fca8
02b1
02ea
0534
fbab
03ff
fca1
02b9
04e0
0096
04d2
02fd
fed4
0243
fc22
fbf4
ff2d
fcf2
0509
03f4
fd9b
02a4
ffca
fcc8
04b3
fb9e
01d5
fef7
fc42
023e
faa7
02cb
0281
fc2d
ff7f
fdf9
fda1
fcba
04be
fa9e
fbec
fdbd
fff1
0424
fe68
01af
fa6e
fc59
0123
fc51
fc8b
0296
fa1e
fde6
03df
003f
fe76
0203
033f
fa3c
0189
02ae
02a1
013d
fb13
fcd7
fbd0
fbe4
ff12
fea6
fb2f
faca
fd5c
fb3c
00b7
030d
022c
ff12
ffee
fcf4
040c
0087
ff1c
fe47
fea7
fec4
02f8
02b7
0398
05e4
02e5
038b
0148
021c
040e
04d0
ffdf
0000
039d
fb10
01ce
018d
02ba
ff08
02ba
fdcf
003b
04df
fe42
fc67
0342
0315
01d2
0068
0564
017a
fc08
ffd0
044f
fe9a
007e
ffb2
0429
ff09
02a2
0454
ffaa
fed7
0170
0383
fadb
fe24
fd47
00bc
fbc0
00e8
02d4
fc2d
fed3
ff99
fc69
018c
fa8c
fc41
00e0
01c4
073b
fa42
fa82
0051
0359
03e3
0430
0213
00f0
fd8a
ffa4
fdaa
03f5
fc5f
057a
fbec
fda3
032c
fb17
ffd0
0041
fdaa
000d
fc11
032b
0027
fd07
0454
ffa0
00c5
ff89
fc9b
0332
0073
fe14
fe88
03c9
000d
024c
03c4
01ef
fc7a
01b2
fa36
0356
0450
036b
fcfd
fc7a
0168
0108
01de
0205
fa82
ff83
fa12
fc7f
038b
027d
036c
0353
ff8e
04cb
fcea
01a8
fd29
fe2f
fc8a
fd51
0014
02d6
0390
0439
02df
0206
fc59
fc75
005c
02d2
0285
03d4
fd37
ff7f
fe8d
fc49
fdee
0300
020c
04a0
04c8
febc
0073
fd52
0512
fd82
ff96
047d
fd5d
011c
02cd
02ba
fc08
ff80
fe97
fe85
0078
0109
0344
02ec
ff63
01a6
ff29
036b
fe27
ff23
0127
fd96
0090
01e3
021a
026f
fed5
fc19
045e
ffd3
ffed
fda2
0158
02ee
008f
0422
fd02
fdba
031d
fdc0
ff4f
0388
fcb1
0263
fa1b
031d
fc2a
013b
0447
01ec
0256
012c
00ca
02b5
0314
fdfc
fe51
030b
045d
ff70
030a
044d
fee3
01a6
fee5
05bf
0169
ffb3
0030
019a
0470
fd92
0434
02be
ff80
fb2f
ff8f
ff4e
00e1
fe95
01a0
01ac
01e1
fca1
029f
01af
0013
05c8
fe71
02df
05e4
0259
0254
fda8
02bf
00e6
0430
0766
fd95
0438
fd74
04d6
047a
05b1
fc71
fefc
01d1
fb4c
fc38
0455
0413
fbbb
0326
fce1
0039
fb73
fdd5
030d
fbb0
00f4
03b0
fbf4
0224
015d
03a6
039e
fd0d
fd42
ff72
03a6
fd95
ff28
ff52
0068
021b
032b
ff11
fe13
fe11
0215
fa37
00da
ff20
023b
03d8
fc5b
013f
ff86
faac
0041
01e0
fbd6
fe4e
ff37
ff5b
00d4
fbb1
fa81
01fe
05ab
fcc4
027f
fa54
fe80
fe4e
0322
fbcf
0431
ffde
fcc2
ff41
fb1f
fd19
00cb
fee9
fee4
fefb
ff6c
fa2b
0058
0097
0290
0337
ffa8
021c
fe75
042a
fe05
fff8
00d1
fcda
0536
0496
fbc2
0120
fd2e
02e6
fd6a
0139
03a7
02d6
0423
0440
00f2
fbab
0139
013c
0237
01b5
fe41
fdf9
03e9
01e3
ff95
0382
0389
fae4
02f3
0359
ff02
fe7e
fbac
0236
03be
fac2
003b
0012
fe73
0397
01a0
00c1
feb2
fde0
fcfa
fd2f
033d
fbb6
fca0
fe25
0306
fe77
fa7c
fd97
03ec
fc59
fac9
fd33
fba3
04f0
fe48
fef4
004c
fcbc
013d
0040
03c5
ff8b
0140
010c
01ff
fc5d
0105
fdc0
ff89
01eb
0104
02d3
0238
fc71
fdf9
fc2f
fb88
ff8f
00b2
fccb
ff70
032a
ffc6
0177
0345
fa24
0094
fc76
038c
01dd
0138
fba4
02b6
fb88
06fc
01c4
fe91
fb6f
fdbe
0086
041c
fda1
04ee
fcfc
0126
fa0b
0439
001e
05b8
04e6
fdb9
ff21
fd3e
fe02
02d6
fbbd
fd46
05b3
0334
fd13
fe99
0143
0379
fccd
fcb0
fcda
02e0
0309
fee8
fb0b
0292
fdbe
0013
022c
05af
fb5c
fc81
0318
0175
fb20
fa1d
ff15
00d7
ffa4
0096
03df
fc7e
0004
fe5f
0404
fe31
039e
0123
fce2
fa3f
059f
0003
ffac
ffc1
fe9f
042f
fd55
04f8
054c
fbaf
fd47
ffaa
02e4
f9b6
fa24
ff7a
ff0a
02ad
02bf
0130
fbcd
fef0
00ba
0448
02f1
018a
052c
0137
fdc2
fc21
0487
0217
0350
02c4
ffea
05a9
01e6
030d
018c
fe8d
0214
fca9
0105
ffed
02bd
fb81
ff18
0178
03c4
0115
01c6
02fe
007f
007e
01ef
0004
01f7
0273
fadf
ff1f
ffb2
fe99
0281
fc28
ff37
0041
fb78
fe22
03c7
fadf
0490
0115
04ad
03ca
fe58
fd2f
fa87
0066
fd1f
ffcd
000b
0213
ff4d
03a9
001e
0350
fd51
ff25
fd12
0362
fc2f
fba1
013e
0127
fbaa
0068
fbf3
048e
fc44
ffc3
00cf
006b
fd08
0447
ff82
fe35
fe99
fd97
00c6
fded
fe3c
00ec
fa4c
042c
fec1
ff6b
0436
fc7f
fe73
fbcf
0026
048a
fb52
fe00
04f0
ff76
fee1
0098
fb4a
0077
00e8
0210
01e9
fb28
fa3d
fffa
010e
01cc
fcf6
fc44
fdee
fceb
fb5f
02b4
03ae
0218
009e
fb97
fb48
ff6c
feae
02f4
fd46
ffcd
fcc9
ff85
006f
013f
fcda
01b2
053a
00bd
fd84
04ca
0598
fd8a
00d1
020e
ff3f
045c
fd38
fefb
01a5
fac0
0094
03bc
ffc2
0061
fd53
fb28
fee7
fde9
fad1
015c
005e
0448
0313
fce4
0021
0293
01ff
0186
009e
0581
0093
062b
ff8e
000e
fa5a
01b8
fc20
0057
0212
0110
fd11
fa28
fd14
fd2b
001a
ff2a
0062
fe90
0030
fdb0
008f
fe24
fbe2
017a
fd9e
fdd7
0236
fc1f
fd06
fd8c
0070
fe05
0070
ff3b
04c1
fb4f
fdaf
0277
03f3
fc71
00c4
01fd
fa63
fb4a
fe90
02a7
0343
fe6b
fc23
03f3
fc18
fe2c
01ac
035d
fc57
0092
0457
ff25
015c
031d
fce6
0295
fed1
fd13
fd2d
075e
00fe
00f6
fe58
02e4
04cd
00ad
fcd7
fc75
016a
fb02
fbbb
fc06
02eb
03ed
02d1
ff6a
0133
0148
fd92
ffd5
fbaa
0385
ff79
fbd9
fc5e
00d7
fbae
0100
fc50
fb9d
001f
05cb
fc08
ffad
036a
ffa8
ff53
fdf3
040f
fdee
fdbb
fe54
fc99
fb94
fa35
0434
036f
fdff
05dd
0438
0266
fca9
faa3
00a2
0007
0082
fdb8
fdf9
fe10
fa37
0529
fdc7
0102
0086
fa9e
fa01
fd17
0088
fbee
ff7d
05b0
fe67
0372
0203
fd86
fcf8
fc67
03f6
fee8
ffd7
033d
fd2d
03a7
04dc
fc51
0065
04a9
03c6
fc67
fbef
0207
fe87
03d0
0394
0513
0322
0183
fc9f
fb0c
03f2
fe3f
00b1
028b
03bf
ff66
fca6
0116
fc8f
0054
faad
ff9b
01b7
ff3b
fceb
0251
0010
fd82
02bf
ffe0
ff8c
05c2
0371
02d2
044d
039a
0437
009f
01fa
fffe
00c2
013a
fe7c
030d
00d3
0028
0591
ff64
01d5
fa75
ff27
0345
0062
fb65
fea5
03b8
00c7
faaf
fb20
ff6a
fd41
03fa
03ef
0397
0195
fb77
01dd
04fe
fff1
0219
0252
fd8a
fb08
ffb0
fb78
0412
0459
fa99
0533
0278
01d1
03b9
04cc
0415
0222
fdb8
0231
00d8
fdb2
fc14
0341
fc5c
fcc6
ffb3
036d
fed2
feb0
fe8d
ffa4
046f
02f9
01aa
0316
fe7d
fc30
017f
0078
fef0
0511
0260
0458
fa3e
ff97
023a
fa5a
0341
0380
032f
fd44
0118
fc1e
fba0
01ff
ff55
0017
0543
ff84
049d
fd23
016e
fe9a
fffb
00f9
ff71
0292
fc1d
00ff
ff9d
02db
003e
004f
0051
fc5c
03e3
027c
0080
fedd
fc3e
fa72
fff2
01a6
036a
01ba
fe45
0247
feca
043f
ff83
fd51
010d
fab2
02a4
0192
0543
0082
fdca
0309
ff96
fbc6
0169
019d
ff02
0162
0268
fc4f
fdd3
fb07
fb8a
0037
0486
fc81
ffe2
034b
0421
fc47
0453
fca3
024f
fbe9
fe53
00a5
003d
05f9
03ca
ff01
fc44
fbca
ff6f
fe18
00b7
01e1
fa2e
02ad
fe32
fcc0
03a7
fe38
ff3d
00f5
0125
fb92
fc4b
0343
fdab
fdfb
ff80
ffae
0213
fa1c
fb49
024a
0101
fd95
04f0
0435
ffcf
ff1c
fec6
fdc8
0077
0033
0293
03ce
02b5
fe4a
fed5
fe15
015c
0493
02b8
fef9
0465
fbf0
020a
fdf4
fd58
fbfc
ff9f
fc98
00b8
fee3
fac6
0379
020c
02e8
fedb
0358
fade
ffca
feab
0535
041c
fe34
fbf1
fa46
fafd
01aa
0525
0103
fcfd
010c
fc4e
fa99
ff60
04d7
fbfb
0457
03c2
0403
0099
ff7f
fbe0
fdc9
0109
01bd
fc9a
0091
016a
014f
029c
02c2
023c
fee9
fbd0
ff9c
fc0e
fc5c
fc8c
04a5
038a
000f
ffe7
043c
01d9
01ef
03d9
02ec
007a
0253
fb5c
02e2
012a
019a
fc48
fca9
ff7e
fe49
01e4
0164
fe46
04f3
0186
01f2
04e4
fc76
fc40
fc74
02be
ffcb
fb37
0048
010e
01d6
fee7
fd72
0336
fa78
00ed
fdb0
fce6
015e
045b
0290
fe99
0288
fce0
00a7
02f4
0160
fa1b
055a
00a7
ffea
fd92
fe6a
ff21
ff59
fa6e
003a
0343
0329
fbc6
026e
0270
fd0d
039e
03f3
0246
0067
0310
fa1c
000c
feb8
02c4
0265
faa6
0164
fa5a
fd20
0219
fbfb
0375
0272
0057
0199
02c1
ff11
fdbf
fe05
fed7
0543
006b
00bb
026f
035f
00a3
04da
fc4a
fe0f
0070
00e6
0280
0554
fb25
003c
fcd4
0233
0010
02b1
fecb
fb85
fcb6
fc6a
01b7
fd24
fba4
fada
fbee
fbbd
0500
012d
fcaf
0493
fdf6
01bc
fbcd
0552
0288
0156
ff74
ff1f
fb69
f996
0186
ff3a
05a6
fe24
fe37
03c9
fd86
021f
0391
faa3
fa97
02c6
03df
01f5
0246
ff86
fd1a
fec8
00dc
fd1c
fdbe
fd5e
0304
fe0d
fbf8
02cb
ff98
01a5
01a1
02a2
0457
fdd1
0018
0083
00c2
fbb1
fb2e
01f8
00d0
0120
01e4
ffc8
fb84
fe0c
fd38
01a5
039c
ffdb
02dd
ff08
ffb8
00a6
fde8
0300
ffa3
00c1
0019
fcf0
feb7
03b9
0236
024f
ffd7
faef
ff92
ffae
059f
feca
02c5
ffc6
ff84
fc27
fdde
ff2b
fa59
fe2e
0035
fdcd
016c
006a
03f1
0326
0327
fc3d
0353
fe75
0229
fce4
fb9d
fb94
036e
052c
fc92
fd94
fff0
fc07
0106
0564
ffe1
fd2e
013e
fbb4
036e
fd5e
fa95
ff28
00c9
0369
0067
fdc5
03a7
fba3
fe51
fda2
0023
01b1
00ee
0409
fc63
026a
03f9
ffff
ff93
00bd
fd40
037e
fe6d
f99f
0383
fcb5
00f5
fe90
fca9
fe04
03e5
0318
fc01
036a
0062
03c0
fcda
020b
02e1
035b
033f
ffdf
fce6
01c4
015a
0324
fe9a
fe3b
0276
0431
fd22
0094
fd5e
ff6d
fd20
012d
fcf4
fd63
02df
fd1d
02e1
fea5
03df
0468
fd32
003b
019c
fc71
fd50
ff9f
fecd
fb9e
0186
005d
012a
0537
fa91
03cc
fd95
02de
030e
fd5f
0529
0351
01ae
0523
fbbe
ff6e
fcd9
fead
05fe
04da
05aa
ff46
fc4e
0351
fdf3
0209
fd25
fd33
0078
01aa
0569
0119
fb6d
0144
05f8
fb69
04c7
03e4
01d8
fa32
0053
fd35
02ce
fe5a
ff54
0219
01b8
ffdd
ff63
fca4
fefa
fdf6
fa1e
025a
0383
feb4
ff2a
006a
fe05
0361
fe6c
033a
046e
00e8
00d2
fdf8
043c
fc9d
01c7
0764
fe4a
fbce
fb6d
02b3
0053
fd3f
0099
04d3
fda3
fd86
fd89
fe54
000f
0274
0578
ff8e
faed
febe
ffe7
fc26
03c0
fcd6
0401
05a8
0391
fe86
fa72
fa47
fe6e
fd79
0571
0407
0015
0120
feb3
fd35
04b0
04d2
fc1c
fe32
026a
0001
008d
038b
01bc
011e
fabf
fc5c
01fd
fbfc
01bf
02fa
fd35
03a9
fc1b
0230
ff4d
fa86
0323
faa7
014b
01c8
fe52
fe44
02b0
fd79
0245
ff2e
04d3
00d6
fdc2
05df
facf
0017
ffe0
ff99
00e4
fe0c
0107
fd9f
fe67
fffc
013c
fef0
030e
0116
00c3
058c
036a
02f6
fd84
ff60
01ea
0290
fcf1
03df
00c8
ff25
fb42
fcc4
049f
fed3
fa81
01ba
fd12
fcf1
00f8
027c
042b
fb8d
fdd5
fb62
ff1e
ff31
fdbd
02b9
013d
fc49
02f7
fc25
00a2
fee2
fc40
004c
03f1
0056
0438
ffff
fb57
fd0b
fc2a
fec2
02d2
035e
038a
fc25
fd62
fae1
01de
00e0
febf
fdf7
02c5
0373
0116
011b
fe6e
014d
0087
ffc9
0498
0033
fd39
043e
03bd
fe68
fc29
007b
038c
0346
fdf6
ffe0
fe28
034c
025e
011e
fae6
fcc9
000b
ffa9
fe6e
01ce
0071
fa9a
fa81
fd24
fe83
fd0a
047a
0064
fa35
ff78
fb5e
fd2f
0180
011e
fce7
0324
ff20
fff1
fba5
fff8
0164
fb4b
fe4f
fb9d
03b5
fd75
02fe
fbd8
0033
f99a
fcf6
ff52
0044
ffa8
fbf1
041e
fed2
fea3
ffb9
fec6
fe63
01de
0355
0577
0363
029d
fce4
ff9c
fedd
014f
fcae
05ca
02df
febc
03bb
0168
ff3b
fd12
faae
0415
02a5
ffa6
0007
024c
ffd5
044d
fca7
fcf1
ff05
fd9a
047e
fd42
fe87
0081
01c7
0424
fe78
044d
00a4
fd91
fc37
fbf8
0130
05d2
02cb
fb4b
0418
fdfe
0027
fcef
0379
fde5
fa6b
fcfe
0457
005b
04b1
03f6
ff5b
fd2d
02b5
00ca
0391
ffb9
fa39
03c9
05b7
ffb4
0029
05c7
fb62
038e
0353
fbe6
0444
026a
0513
ff8b
feeb
fc28
0214
fc60
01a0
fd1a
fcab
fff6
0025
02b3
ff5f
fb85
035e
0209
fbac
049c
0109
fba6
ffa0
fcf8
0174
01a0
ff91
0121
fc17
027c
ffcd
0143
fb5b
fe53
0064
fad5
ff31
0546
0298
fe5c
0535
0340
01e7
fa02
fd12
01d2
fd78
03fe
053d
01be
013c
0007
ff23
ff27
0173
ff52
0601
01ee
fd12
049d
014a
0030
ff39
fe6c
0492
fdf3
fd0d
0164
ffd0
02d9
fed8
04f2
0388
fd4f
0263
fffa
fb28
0010
ff44
002c
0429
00f9
0223
01ee
fc3f
ff5d
fbaa
fd6e
fa9d
fefb
0368
011b
fe37
fc76
ff95
fdc7
0078
01ee
028d
fc04
fabc
fea5
fd14
fbb2
ff36
0512
0196
fbf6
fd4c
fa6d
ffdc
0319
0048
005d
fc76
fc58
fcf6
faa2
0164
fa7e
ff20
0530
01e4
0170
fa6e
01e0
047b
fd8c
05c2
01dd
04d0
fd2c
fe63
fa8d
02bb
fdd5
0126
01b2
014d
009d
02f8
01fa
fa6d
fe17
001c
fc37
04c1
0154
fded
facc
033a
fcbd
fdbd
01a0
048c
feba
001c
0197
fff5
051c
00dd
ffaf
037d
02bd
027f
028f
fd88
05e5
fe91
03d0
015f
faa8
02f6
fc1c
fbc5
fcf5
0317
fe58
fed8
0160
001a
fb4a
fd3f
fca7
03df
fecb
0398
fd82
fdf7
fdff
03b2
02b7
fe99
fefb
0587
fe6e
fed5
0089
0457
fdbe
0408
0131
fc6a
01d0
fc5c
058d
fa3f
fe61
fb75
fd66
027f
fe42
0413
ff69
03d5
fd68
0222
0521
fc32
fde3
00f4
fc9f
fed9
01ef
ff17
ffa2
023d
ff85
fff4
010d
fbbe
0506
01e0
febf
fb27
fe1e
0206
01ab
fe88
ff5d
041a
fda0
fac1
fb39
fe0b
ff26
00e4
0024
ffcb
04c4
0182
03a1
febc
fc83
fe54
fce8
0060
fcba
0028
ffc9
faee
000a
fdc4
fb1b
001f
02cc
ff8b
fcba
01b6
02a2
ffc4
02aa
03f4
00f8
fd90
ffb9
0290
fbdd
00ae
fd55
ff8c
0329
fbd6
03ff
03a6
fa51
fc04
00f7
040a
0459
fa1f
fcbc
fb7c
00f9
044c
0526
ff4f
fcff
fa6f
fac8
fd3d
0257
fdb2
fe2d
fbe1
0272
ffdb
011b
fb3d
fea4
020f
00af
002a
00f3
fdf1
fc9b
fab2
fb9b
fbcb
0438
033e
02c7
003f
fb65
0200
01ad
012c
fc34
0193
01a8
015d
faec
fd62
03c4
fa71
fe52
ff65
0099
ff13
0017
0178
fc9b
017f
fc0d
fec5
0026
fdae
ffcf
fe28
0397
0460
03d8
ff4b
04f6
fdd6
fcdd
0056
0475
01bf
fd00
fdd8
fda7
fc3c
006c
00a7
fd65
0463
0454
fbaf
ffbc
fad5
fa36
fa46
fae0
fcb7
03f6
fde2
ff62
0086
006f
fe86
fa80
00fc
ffde
0211
0467
057a
fabb
02bb
fba6
049c
0512
01a9
feb0
fd3d
fc33
fbae
03fe
0297
fd7c
0004
021d
0016
fb49
fce5
007f
fd14
02c1
fd51
01c1
0267
0044
fe31
fe54
000d
00f3
fc4e
fd98
fc3a
fc2b
0277
0148
fde6
fd90
02b5
ff80
02df
fb58
fcf2
0384
fc06
01f5
feb1
ff96
fef1
0373
0042
fd67
01db
faf5
0341
041b
fea0
029b
037b
02a0
fe3e
0351
fd93
fc29
046c
fa9b
fe2c
fa5a
008f
047a
0214
0330
003a
0275
ffd8
0540
fa14
01ce
01f3
fcdf
fca5
02bd
feff
fcf8
038e
fcfb
fcf7
05df
fc0e
fcad
0273
ff93
0538
feb6
03ca
035c
03c3
0188
fb45
01a2
033a
02af
02c7
fcd9
fd45
f9b0
034b
fbd3
0524
02fa
04b3
ff5c
fae5
fe11
ff76
03d5
fdc1
003d
0305
fe6c
00a0
04cd
fb87
ff8d
0413
035f
04cb
fd7f
03c5
0263
fd49
02d6
000e
ff3e
ffa4
03ab
0062
0300
fc6d
0058
fa63
fb39
feb9
fae4
0453
0468
fc0f
fd88
fd8e
025a
fe42
01ca
018b
fb54
0385
0037
0282
015c
0030
02f0
fee4
fcc6
fb26
0076
045d
01c2
fdb2
0118
fe8e
fe98
fc49
fa54
0279
fd64
fc89
fa58
fe8e
ff44
fe20
039a
fef1
fabc
fc57
01ac
005a
04c4
0434
01b3
0559
fbb9
0467
020c
028d
fa35
fe6f
002e
0231
0340
fc20
fe66
00b0
039f
fc2a
fe26
027b
fdf5
fcaa
fbb6
052b
fdbe
fba2
ff10
fa64
0341
011b
ff30
01b3
0415
00c5
fb7f
fc56
fe5b
fb31
0674
ff1a
ffa9
fafe
04e9
016a
fd24
0033
fccd
043a
fee4
01e7
01ae
0350
012b
013a
fbe5
fcb8
0327
0374
fefc
fa17
fc96
fd03
004b
fffa
0568
0395
fe02
ff2a
0430
fe92
fc5b
fbcd
00fd
0283
fbd7
feba
fd44
0022
fea7
0091
040c
fca6
00d8
fb67
ffa1
ff2a
0113
008d
00f5
009f
fd7c
ff19
0375
0398
ff1e
012a
015f
fc8b
fb73
0025
016c
fc3c
ff93
0015
0423
fffb
ff8e
ffc9
0127
0425
01aa
fce1
fc9f
ff2b
003b
0127
0086
01bd
fbd0
009d
0189
007e
fda3
ff14
0060
fd49
00b1
029e
fc52
fe9d
0001
fbe3
0355
0582
fd74
05c4
00bc
fdf6
0187
fc36
fffd
fde3
0373
0280
fdb5
fbad
0328
033b
01a5
fae2
fa2f
0244
feff
03ea
fea2
009d
02ae
fc56
032b
0197
fd0c
002c
019a
0527
fba8
fc15
0566
fa11
feb8
0224
00d6
fc55
fe5f
0143
fbd6
008c
0391
fbdb
fa30
03fd
045e
fbd3
ff2d
03e4
00d5
fc9d
fc7e
fa6b
006c
05d4
fbf4
fbfd
fbb0
faa4
0332
05a4
01cb
00e8
02c7
fe20
040c
fcb1
fdcb
0571
fb49
fca6
0452
fa62
00ff
017d
fbcf
0402
01e6
fa88
02d4
0323
00b0
fd20
ffa6
000d
014e
0020
003d
fef5
031f
0370
fb4d
0077
fe43
fadb
fe44
0300
fd11
01ab
fd66
026c
fbe8
ffa3
fccc
013b
fe37
02b0
fa77
fca8
03c7
0338
ffd5
0117
fe57
fb41
fcf2
00d7
fa84
024e
0055
0030
0197
02c4
0379
fd38
0372
ff7d
0176
fd02
0356
0383
ff74
fc8e
fd58
0104
03ca
fbea
00e2
ffad
01fb
fde7
0438
0237
031d
fd18
ffe8
ff78
fd6c
02f4
012f
01b7
043f
fe52
0129
01df
0020
0592
fce5
fb67
002d
fb29
034f
0011
0024
0518
fce7
fc53
0194
fb8d
ff79
01de
fea9
050d
02f3
fc0f
01c2
fe71
ff0d
0080
fc4d
02e4
fef2
ff02
03ed
fc23
0496
fb34
ff89
03ce
0330
004b
05ec
057d
ffdc
fcf7
ff9e
04bd
04a7
01d6
02b6
032c
fefe
0454
fee2
0112
0287
fe72
0237
046e
0206
faa8
fb4a
fb1a
fdd0
0430
02ba
05e0
fd20
032c
fc01
fe16
fbbb
fead
0698
fcc7
00ed
00a3
ff2d
0574
0248
0215
0068
0463
fbb4
ff26
fb2f
03bd
0094
fed1
fffa
fadb
fab9
ff26
fc73
fb9c
0365
fbdc
01eb
fe18
0568
0149
fde0
fbcf
fb8f
0011
fe57
fe73
02e0
fecb
fcfe
03ca
012c
00ed
05b0
0236
fde0
0086
01ee
fa71
ff54
0216
feff
02d9
003f
00ba
ff99
01d1
021e
fdd7
ff5b
0114
ff6e
0322
fdff
feee
fcc3
fb07
073d
023d
ff92
fd25
0037
05da
035f
020b
0096
fcd3
fa9b
026d
00b5
02de
fd41
0278
fe46
03a2
fcd7
034e
fe72
fdfd
fadb
034f
03e0
012c
0354
048d
0219
fe61
fbe0
fbf0
03a5
038a
fac0
02bc
0345
ffa2
fb8a
fbad
0371
fdcf
003b
00f3
02a9
0124
03db
fee4
fb9b
fd95
ffe1
fa4c
fee2
03cb
ff76
fbdc
013f
fe2c
ff39
fdcd
03f7
fdea
035d
fc88
05f2
0332
0009
046f
0503
0464
0362
02be
01c0
fd82
0317
00f0
fbfd
0196
0354
ffb3
0467
fcdf
040a
0092
fa91
0275
0056
052f
03a3
fe79
ff72
ff09
fc21
04f3
031c
0498
fe16
fc0e
01c6
fd1c
fc88
fee1
fb31
03a5
ff57
010f
02f1
ffd4
046e
fce7
00d3
fc84
fccc
fe77
fcd1
03a5
fbdf
fb91
0065
0292
0429
fbb8
fa75
0370
fdab
052f
ff6d
fa22
fe4e
fa0e
fde2
0007
0249
0402
0485
0355
fc37
fbab
fcf0
0347
0111
05b0
fdb9
04a4
026c
022b
01bd
fc0a
fd11
fe16
0134
029a
ffc6
04cc
02db
ff60
fb80
fffb
01ce
00d6
ff32
fdbf
fae9
00db
00be
02c9
0185
fec6
fcd4
fd55
fcc1
fa90
fbc6
018a
fc5e
01d8
03ec
0325
00ad
016c
ffbf
0140
01cc
01a2
fcf3
04e6
01f3
fcfc
fd95
fe5c
0363
fc21
05ce
fddd
fb58
ffdb
ffeb
0311
041d
0093
ff9d
fb7a
fed3
fe4e
0257
01f5
ff2c
fd0b
fbdd
02e7
fab0
0115
0413
fbaf
01b7
02bf
0297
fd4a
fc83
fdda
0287
01bb
ff71
0536
04a0
fe97
feb0
0021
01cd
05d0
0548
fbc4
fdd6
fee5
0355
0027
0454
0395
fe1a
fac0
02e4
0049
fcd2
fbe5
0074
fc5c
0260
0400
00a1
fd0e
fd3d
0245
003d
001d
02c8
025e
fe48
0247
fe20
03b9
fc2e
03bc
04c3
fdca
fe08
01e1
007a
fab1
fb3e
001b
fe76
fe42
fe68
01c6
0180
02fa
0239
fb70
fb76
0598
fd1c
fb6e
fcdf
fe68
fbb5
0072
fe55
04c4
ffef
fce0
02fe
fab1
faff
027c
fc43
0272
fe92
fe67
fe7c
00f4
0007
01e9
022b
00e1
fe4d
0170
fb6a
ff7e
0211
fb5f
fd66
fb0d
01f3
040b
fc59
04a9
fae1
fe7c
02f9
fbd2
0082
fd39
ff0a
007f
ff2b
fdf1
fc79
03b0
fe1c
fa6b
fe7e
ff30
ff6f
03e9
01b8
0291
01cf
0195
040c
01c1
fde6
fece
fce9
fe5d
010e
fe38
fce7
00dd
fe07
fd08
fde6
03fd
03a1
0275
001a
0042
fbc7
0325
00e6
fbef
05ce
ff3e
019a
0369
03a0
01f5
fda6
032d
fcb3
0096
fc85
fbc9
fd1c
fade
03ab
041a
051a
04a2
fe37
fc60
008a
fe9c
02a9
0371
03bd
fb03
fa95
0391
fe77
ffe0
fc71
00c0
0282
01eb
016a
fc3c
fbdb
01c0
029f
fece
018d
fc3c
0392
fabe
0000
fb15
0357
0431
fbd5
006e
fcdf
044a
045c
0144
fb6a
fd9e
04f1
fbf3
0363
fbfc
fc70
ff8b
fe2e
fde8
037b
fb2e
ffd5
fa21
fedb
ffaf
0069
fa25
ffb7
fc02
fc6e
ffcc
fd3f
fb98
0532
02a5
029d
fddd
faac
ff3a
fef4
00f5
01e2
fcca
04ea
00c5
fca0
0488
05c8
fbd4
02d9
052f
fdf8
fb96
fbfc
00cf
037e
fe30
00fc
04f8
fa9b
ffcb
03c3
02a8
00b8
ffb9
01a0
00a7
02e7
0029
04fe
fc05
fc3b
fe9c
fb6e
03c4
03a1
04f6
fbf4
faa7
00d8
fc99
ffd6
fdfc
00e6
01fa
fc53
fe50
fdfb
ff12
0007
0266
fc0a
0200
ff85
03d5
feb7
0149
fec8
ff67
00db
055a
fe80
fbf2
fd24
0556
fca2
0256
0046
fac1
ffc8
018d
04f0
fcf2
fd0c
05c4
fca2
0182
fab4
fcfa
ffea
ff5a
01b4
02c5
ff19
fee1
ff4c
fa49
0454
fdf9
fffb
044c
fc14
fc4c
05db
0172
fef3
0076
fd91
0569
0223
ff27
0056
fac5
0138
fcf7
fbda
fa47
0061
ff4d
042b
017b
ff91
fce5
fb34
fe5e
0120
fd69
0434
0179
037c
fb2b
fe5d
040d
03fc
0083
fb1b
043c
ff99
ff7c
0020
023b
0113
03f5
fa7d
fa5b
0543
fbba
0134
04bf
fd60
02a9
02ad
fc7e
faf3
040a
023d
fb99
ff84
fcd5
ffa1
fea5
0349
f9f0
024b
0167
0083
fbbb
0000
fe12
0161
0224
fe0e
fca5
033a
ff29
0037
0119
0301
00d2
fed4
fcf6
fde7
fb91
fe82
0102
fbf7
0265
0317
fd91
fe0b
05bd
fb39
ffae
0149
fe56
011e
fcfb
0335
044f
ff0e
029a
fbe6
fd8d
0014
034f
0193
fc47
039f
001a
00a1
fe0f
00f3
ffd1
fea9
fb43
ff94
018a
faf2
05dc
fe57
020f
0031
ff58
fcf6
0181
00d2
ff1a
0104
0319
006d
0461
01ab
fbec
fb08
0601
fb96
05be
02bd
fec4
03bc
fdd4
fa7f
fe6f
fb90
faee
fd03
fc43
0201
fc8a
fc68
fc94
0041
039c
00ef
fcf8
fbc8
03fb
ff36
fceb
0413
faee
0593
0590
016d
03f5
02f8
01de
fcd1
0372
01d9
00ad
fc88
026e
027c
0296
005a
00dc
ff36
fa75
01be
03e9
015a
fec7
fc63
04ef
0220
fe03
ff07
038e
fcf6
fa7a
fb92
fd8b
fe8d
fda5
005b
feaa
fd99
03a9
fb8e
fdc3
fccd
0472
036c
fb44
fb33
0417
fdc4
02ec
04ea
fb7a
fe82
0414
0362
fd40
fb19
0301
01ff
0210
fcae
01bb
fcca
fa6c
032e
01fc
fcd0
00d1
006b
035d
005b
007e
0474
ff93
040d
021a
0209
018b
017f
0285
044a
053a
0334
ff4e
01f5
026a
0258
0193
ff9d
fc91
ffbd
02b6
ffa5
0428
00d8
fa52
fe41
0413
000b
fdd0
0265
fbaf
fb20
ff77
fd55
fd00
0201
fd63
fc13
fd82
fe51
fc24
0091
0423
03ff
fd35
028d
00e3
006f
fef1
01b8
fbd8
fb89
018c
ffcd
004c
03be
ff50
ffcd
fc8c
ffe5
02f9
028a
01fd
016d
fc1a
ff60
fef9
0745
0277
fc86
fad3
01b5
0285
021d
fcef
048c
00cd
0250
ffca
fc8f
fe91
ffa8
0427
003e
fd4c
fa33
fe96
fab8
012a
02df
00eb
fdcc
03f1
02d4
fd55
02c0
03e0
00ed
0532
0389
02c8
0170
ff32
006e
00e6
050e
0426
05c6
0309
0123
fd81
ff08
fcfb
fb0b
fe1b
fff5
0061
035e
fbbe
fa5b
0261
022c
fc43
03e4
fd9c
0163
fe2c
fb01
00df
0149
fda5
06b4
fe5b
03ae
039a
05a9
024c
fe9d
fcd6
fe88
017c
fd42
0168
0212
fee4
01dd
fec5
03e5
fa3f
ff00
0269
fc19
f9d9
0459
fff1
02e7
0220
fede
ffa5
fec4
fe4e
ff61
008b
fbd9
00ca
00b7
fce0
02cd
fe27
01aa
fabd
fc1c
02cb
03b9
fbe0
fc99
0184
fb21
fedc
0349
018e
fb54
fd65
0149
fade
fc10
02ad
ff83
0078
0360
03c6
0385
01d5
ff46
ffb2
0632
fe92
0115
01bb
ffe9
fba9
034b
ff0f
fc02
fb70
fef2
fbce
0389
0102
ff48
01bc
fb3b
fb9d
0195
0336
fba9
f9e7
0434
fe18
00c6
04db
03ae
fd3e
fbb4
0375
fef1
ff72
058b
034c
fd6a
fee9
0055
fbb9
fc4c
01d5
00e7
025d
fe53
03ad
fd54
febb
fbcc
fe86
00c4
fd3e
ff37
fb17
fbcd
fc83
fdda
faba
00e4
fd5a
0406
fbc1
fd6d
01dd
fde0
0331
066b
018f
faa2
03e9
0250
fc30
fc47
ff0f
fc51
feff
fbd1
fcb6
0383
0167
fe91
fcca
fce6
fa30
fb55
0239
03cd
0127
024b
0411
fea2
fcfb
fde1
0481
0409
029f
ffb2
04b4
fd41
fe50
fef5
fe68
01e7
02e5
fb26
01ea
045b
ffa3
0020
0254
01e0
0280
fc95
fec1
fe80
0539
03b0
fbe9
0292
0171
ff18
fa99
02b2
0218
02e3
047f
0394
00bb
fd1d
fc45
ff87
fdbb
fc21
009b
028e
03fd
003b
00bc
034e
fc3e
0061
fbe4
fed8
fc6d
fee8
0294
fe8d
fc45
013b
fc65
fe8d
02a0
0287
02f8
01c2
04de
0243
03a2
fb4a
04e5
fc97
011d
fcda
ffd7
0275
0169
0223
024f
0202
fce5
fdeb
fb27
044f
faf3
ffb6
fdc9
fb79
fbb4
0137
fda1
fc67
009d
03e5
fffd
fd71
fc35
01ad
ff5e
faa9
fe25
0023
0120
026f
ffb7
04f4
01fa
fdda
00db
04a1
01b6
01d0
fdc6
fea9
0046
fff6
fc95
fdc5
ff74
fcb0
fdbc
ffc8
fc69
fda8
fbc2
fc42
032c
fb48
ff82
0334
0284
00b0
fc47
035a
ff97
035f
fe57
0582
fcfb
0293
fbcf
fc97
03de
fce9
0080
026c
fe61
fd54
03c7
ff38
ff2b
0463
fe86
fa20
03f4
00fe
febb
fc84
fa71
04a2
fc5a
fca0
025f
fcb7
fd42
fe8a
fe04
0045
fbeb
05d7
fb1c
fff3
ffb0
02fb
00b4
fe91
03bf
03ef
fa3b
0085
ff90
01d1
02b5
ff45
fc96
0297
0067
fb17
028b
ff02
02ee
007a
ffcd
fba0
fc05
ffa7
03be
fe9c
ff02
0033
fdb3
fbbb
02b6
fd57
0129
fa97
0259
fe11
fe9b
027f
fdd3
0395
ffda
04e7
fa34
028f
005f
0174
03f8
0262
fd63
fe1b
01df
0199
fa62
0480
ff79
007f
037a
0142
fc28
fe82
fa4d
fe3d
01f0
0350
fcac
026f
0589
0534
016b
02c3
0244
f976
0359
fe9a
fdcd
035e
0100
fcb5
fc2e
fbab
fabd
fd5e
ffc6
03a6
01b5
fd51
fd85
0171
ffbe
fa51
ff06
0506
fbae
02d2
ffde
fc31
fe2e
0172
0367
fc5c
0345
015a
0090
fe79
0431
fd07
fe34
fd38
fe07
0377
00a3
fdbc
0424
fc73
03dc
05bc
0360
fc6f
ff69
fc17
026b
faaa
04e3
fdbb
006b
006b
009e
fc1c
fc17
fbe1
fbb6
03af
0167
fd6b
00c7
0225
01f2
02a1
fd53
fba2
052e
039d
0212
fc30
0260
fb4f
03db
04b0
028b
fc4f
fc66
012e
041c
02fb
fd50
01f9
fda8
fc97
fb9f
fdad
fc23
fe6f
fc2f
03f0
fb10
057e
0006
fa4a
ff2b
00e3
fe10
fa28
fbe1
ffc9
0224
fe43
03c6
fb61
0398
015c
0241
fdbc
01f8
fe65
0433
0460
0065
05a0
ff6f
0360
017a
fe12
fb7b
fe38
0307
0340
032a
fffa
00b7
fd7d
ff63
0409
0270
0395
ffb9
043a
fe8f
fa3b
00e2
00e1
fbca
01dc
fec4
04db
0266
05df
01be
ffcf
04e4
ff47
fdc9
fe6d
03b1
ff9f
ffe5
fe44
02a5
028e
feb4
fbf2
fe47
fcb3
fe48
ff4d
fcbf
fff8
026b
fd13
fd2f
fbd8
fcc7
fa40
0037
022b
00be
04ee
0336
fcf9
0285
03db
00b6
fc89
fd66
01bd
040f
fde3
0351
fea2
03b4
fc44
0211
0342
ffcc
0317
fb1e
fdab
ffed
fe46
056c
fe1b
fa9c
040e
fc38
fad8
ff59
fd3f
01e3
fd0c
fc41
ff1f
024d
00dc
00b0
fd45
fcd2
fdd0
033f
0175
01f3
fdd9
0166
ffd1
0306
01ba
02c9
0435
007a
fcd2
fbce
0161
016d
ff8d
047f
0378
fb6f
03ef
022c
fc7b
fcf6
0338
fcb3
0116
02b9
fc5d
fb6f
02d3
fdfb
048d
fed3
026d
ffff
0541
0272
00b9
0196
fefd
0185
01b5
fb9f
fc7d
02e4
03cb
00ab
fbbc
fcea
0098
045d
fcf4
0003
035d
048f
fcb6
051b
fcf4
036f
fd0f
0254
02df
fc3b
02ec
fbf1
03d6
033f
fb49
01b4
ffbb
0363
fee0
fa77
0291
fe36
00e6
01a2
02d4
fa5c
01af
fdd1
fa94
ff24
fbcd
00e5
feb5
fcd9
01e3
0028
fa9d
050a
fdfb
021a
02ff
016b
fd84
fd0d
fbc8
fd86
010d
fdf7
03f5
ff08
038b
ff75
fbea
033e
010a
fd56
0265
006a
01d1
fa7a
021f
0139
040c
fd39
ff63
fcaa
fbce
012a
03a7
0441
042a
fcd0
0225
fc25
fc0c
003b
fab5
027e
043c
01a5
fff6
fd91
fedd
fe0b
fc3b
03fe
febb
fe70
fe51
fda6
03f6
fee7
fc04
016e
fc70
01f4
00c5
fe2a
0505
010c
02b4
0005
fca2
ffad
fffa
00c9
018f
fba5
02d2
fb47
00d2
05c3
00d0
fce3
fbd3
014d
ff83
fd28
039d
027f
fba7
035c
fa25
0049
fead
fd38
04a6
fed6
fbb5
fec7
04fc
0021
fcf4
ff6b
02e2
061b
019e
ff98
00fe
053a
01fb
fde5
009e
ff58
043c
0082
034d
018a
fa1e
0331
01e5
046b
ff51
fe80
fd96
ff64
fd90
ffae
fa5e
0086
0038
fb1a
ff9b
fc8f
0158
01a7
fdc9
0504
fd5f
fc92
01fe
ff2b
fcd9
fe6e
fee3
ff78
0080
04f3
050c
0421
fd88
ff5e
0017
01b9
0220
ffe0
fcbf
fd5f
fb63
0393
fdaf
f9dc
fc6e
fbc0
03fb
fd5b
00df
03aa
febd
ff80
049b
fdff
fe27
011d
fc1e
fd9a
042e
01cc
02e4
fd54
04b6
fb5f
fa77
01a7
0357
fcbb
fbdc
faf8
fc0b
fe27
fedf
fed6
fe6c
fbd3
021d
fbf3
048f
fbf6
fdf9
ff1d
fac1
0190
0461
0458
06a3
0415
ff46
fcea
0547
0408
04bf
fbb9
0097
03e7
fc4d
fddb
fa8a
01e4
fe14
fbdb
fa3a
fd72
fe99
0147
04b4
fb09
faba
051b
0486
0061
026d
002b
042c
fe7c
051f
028f
03c9
0319
fffc
fe2d
fbac
02a8
042f
fdd1
fe2e
fc3f
fb29
ff39
0168
fe70
fc12
0139
ffd0
056b
fa67
0335
02b7
fd17
0484
feaa
00cb
0296
0377
02cc
029b
fd72
fec5
fbe0
ffc3
fb24
fef7
fbae
feb6
fea7
024f
fd38
fe8f
fefe
ff41
faa4
0388
03a1
feb1
fbd1
fc55
0336
0031
013d
ffd1
fa05
ffa2
fede
020e
fea5
fba5
02e5
fd13
018c
fe64
031b
02f9
ff0c
03e9
fe9d
ff73
fe74
0302
fb52
fcb9
fa75
fee2
0206
fd57
fce1
03f7
0226
fa81
03d7
02a4
ff65
038e
fd9e
ff43
0169
015f
ff27
fa68
01a8
018c
fcdb
0556
0347
0730
02a8
0419
0359
0462
0190
0401
02bd
fbf6
fb56
032a
0345
ffd1
014c
0472
00ae
fdbc
fb88
02e5
013a
fd51
0283
fc0e
0003
fcf5
ff43
05a7
0280
0315
fbef
03f5
013b
03b2
01a8
0110
fb08
fd8b
03df
fdf4
005f
0431
fc97
03ba
045f
ff77
fd6c
0136
0245
021b
fed0
030f
0447
00b8
fcda
ff46
fedf
fe2e
03f1
0363
043f
0062
0194
011a
03c3
01e0
0071
00a4
0077
0457
fd46
fdb0
00d9
ff47
0422
0236
fb9c
facb
fe12
05d7
0193
fa82
fab2
fff7
0328
fdec
ff4e
fd0c
fee2
005c
fe3b
018e
0495
fbc2
0363
fdcd
fc0d
038b
fc15
040d
fc96
fe62
05e2
014e
fd4e
fd6f
0374
00f2
fd78
fcb3
fb45
fbb0
0180
03da
fe0f
fc45
02b9
fcf9
008a
fcfd
fc48
febc
035f
0034
0327
faa8
fcde
fd61
0264
fd5c
0268
01a2
018a
fb99
02dc
051f
051c
0405
00df
fad4
fec9
ffe8
00c3
02e3
fe83
ff45
03a0
fc19
038e
fde1
015a
0126
00b3
0140
03ad
0101
fbb9
02c9
fd5a
0030
fca8
fc7a
fde9
0009
00c4
fc2e
fd98
fb54
040e
fd8c
019a
02e1
ff5f
0014
0062
ff31
fdac
ffe7
fd72
fb56
0064
02bb
0451
fdf8
0229
02e6
0469
fd70
05c9
fef8
01c0
fd0c
ff7e
0470
022e
01bb
fb0b
fed9
fd4e
fd48
fe7f
fdfa
01ba
016f
01d5
faa5
fc44
044c
ffc8
034c
011c
0298
fb3f
fe75
fb7c
048c
ff50
0284
03d0
fe61
feac
0443
0434
fcf1
05cf
fcd7
fdd7
fa7e
0215
01b0
ff80
0167
fbf6
fb9b
0161
fff0
03a4
03ac
fc8b
fac7
031f
0031
01ee
0274
ff8b
ff15
02e5
01fa
035a
009a
0563
fa45
ff5f
0325
033d
014b
027a
0472
fd53
ff76
ffbf
ffea
ffb1
036d
fc2c
0019
fcad
01c0
0240
ffc4
0242
0344
058f
009a
fe20
ffbd
0333
0009
0042
0394
0127
02bc
fd29
fec8
0153
fcea
fd87
02b1
05c1
0494
fce8
03b8
0412
02e2
05ed
029f
fb02
03f6
fbf3
fa45
fe88
ff91
034b
042c
0215
fe2b
ff10
00c8
fb58
01c2
fa4d
fc13
0033
0036
fcc1
fd3d
fc3e
fbe4
0084
fc51
011f
0242
fcc9
fc88
fdfe
fffc
ffaf
046c
ff34
fc7d
01dd
0276
02a8
ffb6
0335
fbad
fba6
fada
00bd
0336
0281
fcbb
00f3
0224
0455
fc73
02e6
0234
fe4e
021c
fe4d
0220
028f
030a
0384
