memory_initialization_radix=16;
memory_initialization_vector=
035d,
feed,
ff3b,
0000,
fe49,
023a,
023d,
ff89,
01af,
0000,
fe46,
ffe5,
ffd6,
fca6,
034a,
00a3,
013f,
fe2c,
ff3d,
0297,
059a,
008d,
fd49,
ff3b,
0587,
ff3b,
04f4,
0864,
ff3b,
0210,
fac8,
ffe4,
ff3b,
0230,
0000,
fe21,
0170,
0000,
049e,
ff2c,
02a3,
ff3b,
00f7,
fed6,
01e7,
0109,
06cb,
ff3b,
00d0,
022b,
0007,
fd56,
ff20,
006d,
ff28,
0000,
fdfa,
0331,
ff40,
0000,
078c,
02d9,
000a,
0178;