memory_initialization_radix=16;
memory_initialization_vector=
008b,
fe30,
0194,
fd95,
fe09,
fd71,
ff75,
0203,
fe8b,
ffb0,
017d,
01e6,
fe43,
ff1b,
0053,
0164,
fdf2,
ff82,
00d9,
01b2,
ff05,
032b,
fe89,
fd7b,
010d,
fe6b,
fb7d,
feec,
fde0,
fe26,
ff01,
fcb9,
fdc3,
fe2d,
025d,
ff36,
fe21,
ff0c,
ff20,
fefe,
0128,
feba,
fd7f,
0189,
ff73,
0137,
fe05,
006f,
0295,
011a,
fea6,
01ee,
ff17,
ff35,
ffc0,
0078,
fe95,
00ad,
fe70,
fdd7,
fe51,
ffe2,
0046,
fe47;