ff1e
ff63
00c2
00c5
00c5
00c3
00c5
ff58
fe6a
ff38
ff32
00d1
00c3
0087
ff43
ff3e
ff51
ff3c
ffb0
fef0
ff8f
00e4
00c6
007f
00d0
ff76
ff71
00f5
007d
00d6
00c4
00c6
ff3c
ff3d
ff43
00c4
003c
ff3b
00c1
ff3c
ff3c
ff3d
00bb
ff40
ff3d
ff37
ff3c
00b4
ff90
ff77
ff45
ff32
00c2
ff3e
00c4
00c3
ff45
00c6
ff4a
0074
00c2
ff3d
0279
ff35
