1aaf
ebb0
0ca3
1a5a
1972
e8d1
efed
e37f
06ac
f02a
18af
e436
f87f
1b92
fa0b
09b6
fe47
10d4
ffd5
f81c
062e
01d4
f491
047f
ffb6
f63b
fb32
eade
020c
0c6a
15ff
0f7a
023c
114c
f53c
f0a9
1d14
0e16
0e09
e6a0
f9fe
0b5c
0487
e37f
fd75
f75c
1991
ea9f
0e9d
0266
ebe4
16f8
f335
f671
05a1
fa25
f20f
fe12
f710
fa1b
1a8e
120a
f258
ed17
ecc1
09f7
0217
0a36
fd09
103d
f378
f28c
fbdf
e741
0a90
f5bd
17d8
e909
f4bc
fcfd
ff54
0d23
1780
fb5d
1293
e389
1266
eb3c
f5fc
1c7f
ef61
fce5
140a
e934
e730
1195
e94b
fca2
011b
14c6
11b4
098d
1969
09c0
ea8b
f804
01e8
10e2
f1c1
05b6
f2c2
e90b
04ec
fe0a
0536
0ea0
f5bb
e50f
e9b8
0ded
f66c
f404
edb1
0360
0b3f
03de
e125
1967
0396
0b9e
f0ae
09da
e969
f4cf
f7e1
0b93
1b1f
fb97
121b
04a7
03c4
0a83
0b4b
fd38
0fcf
0f34
151c
0a37
f88b
0adf
048a
1281
1309
0ec0
ff5f
12da
fb75
0d27
f031
e37a
ffc6
0195
eddb
0497
0882
0cb0
1999
1800
147f
0899
140e
fab1
f7b1
edbe
fb6e
ede7
efc2
ecea
1856
0544
09bc
e9a8
1abd
0272
1448
1626
f8a0
e507
f63b
f270
1647
03b6
feff
e58c
0fdd
ed06
eacd
f0fa
1176
fdc3
ed7e
15ca
e973
1cdc
ea7b
156e
17f4
0284
e3dd
e4f7
098d
01df
e498
0537
0720
181c
ec21
0687
fcd0
fd1e
e318
e43f
f50f
eb91
0f07
108b
f7d7
f967
eeef
037c
f044
0a5b
f75d
18f1
f472
f263
f2d3
eee5
01ef
130c
ef4e
137a
1845
043c
ef06
ef6b
1907
0a7e
ff55
f8fa
e63d
f9cf
f0c3
1ad3
fafd
e969
0375
0f88
1978
f330
179c
fe2e
0c57
eea9
f694
0e1d
fc1a
fb41
fcea
e8cf
0264
1b71
0407
fd55
10cc
fa02
fa6f
fe01
f220
f600
164e
0710
1344
efef
09a1
ed70
ffc4
1321
fa82
161d
0151
1944
ec02
fe18
106a
0fd4
f07f
edde
137f
f40f
f2ca
1ada
0db1
0d99
1a8e
1877
14bd
16ce
0a82
e96e
ed1b
1139
f417
fd11
fc99
ec22
fac9
0a82
f518
15d7
117b
11a1
0f82
0dbb
17da
0535
ff77
ea63
0bbd
edbd
1ca0
15bc
0592
1249
ecb5
0276
f640
117e
0867
1b29
0ff5
e887
00fe
e473
e8b8
0f35
023c
f398
ed73
fce4
1943
e0db
fae6
14c1
19d2
1589
002c
1030
1438
0bd9
0814
f736
e68f
0e0f
e6ed
15b3
16ef
f5b6
1a26
02d8
061c
f85a
f050
e971
fb02
0a6f
17ae
fc8a
eb2b
1069
ef08
19e9
fe5a
00d6
ef1b
ec71
eee0
11d4
0f32
0b76
093a
fa95
ecaf
01a5
f547
f24f
fe89
f1d4
f87d
0061
f37d
e744
1be8
1942
f749
14fd
1929
e359
eba6
ed08
f6f1
0157
f0da
eee3
1998
04a3
00e8
e60a
edb5
ec97
0d94
04a0
e561
f7f1
10bc
f7d1
e693
e849
eb85
f963
0b52
1a2e
e7f9
fa6a
12c7
0592
e415
1844
12a5
0140
0cf2
0478
087b
15c6
ebd1
0f29
193f
0d8a
1af1
06ac
f3ec
ecf8
ed83
0dcb
122d
e25f
ed17
124e
fc51
0548
e6a6
e8c1
0e28
e9fe
11ef
e3cb
0f90
e725
ebff
f003
1721
e68f
08bb
f38c
fa67
e8f0
f1f1
0197
e98b
1b40
fe18
f52e
fe7b
1b4e
fa63
01b9
f33e
f80c
f1c2
0739
edfb
f772
f13a
fefa
faba
fb17
e41e
edf5
f73d
ff7e
ed9a
eb90
16f4
02c7
09c8
f827
078c
e97a
f45f
fc79
18a6
f0d3
edb0
1011
f201
140a
1587
02be
0050
e534
1916
0c5d
0a98
0fc6
114f
fa85
fa16
1162
e110
11de
0122
26f0
10f7
ec1d
f79f
e683
f070
e6fa
fe87
02c9
ecdf
ed6c
050f
eb8f
e8ed
11f8
1ed3
ebd4
f5d6
e881
1ab2
e2be
0fe0
0ef6
ec88
1201
eb83
0410
e43d
e4ad
edf5
1a79
ed50
f8c8
e1ed
197e
0c9f
f215
16bb
09cf
14e4
f658
08d1
fa5f
fd84
ff66
f08e
1a23
19fd
f80e
f15a
0707
0a27
fc03
fb80
fe92
1262
f9b8
1102
e966
efc1
ec12
0537
0ad7
e8d9
f834
f158
0df6
1658
f3ab
edc8
f75a
ed88
146a
0ab3
093f
0603
0022
04f7
088e
eabb
f947
0f8a
10c7
0f22
00da
0b43
10f6
f286
1824
13a0
0713
14b3
04c7
04fe
1700
eacf
fbfa
16d5
ed59
069b
f17f
137a
feed
f3fc
0a2a
1064
063a
11ff
e98f
16e3
0c7a
fd8c
08ed
13ac
0968
fd85
edcc
0c76
f76b
187d
0609
fe2f
0b02
00e9
13c0
ec24
12d6
fdbb
180e
ee60
e632
ff86
06cf
f4c5
042f
f76b
14b9
fb4f
1464
05f0
fa45
14b2
eb7b
fd7d
0392
038e
1d37
f518
efd7
1561
f950
f1ca
0844
fb1c
17b1
efb0
136c
f5d9
09be
08f0
f0f6
0a59
fb1f
1269
ef52
f617
0689
1cf0
15f3
ecd7
11be
045b
02ab
ee43
183d
0807
f9a4
17a3
e6e0
e52d
e7ec
17f6
fa21
0e4a
05d8
14a3
19e1
eb2e
0b0c
0066
01aa
f54f
1313
19d0
fe10
19bc
15cd
f96c
0618
ee2e
e345
0ea6
e7ac
eaa9
1567
1075
fac0
ebca
1840
10c0
e7de
fcec
f983
fc36
054d
eccb
0dd4
f927
0be1
ffa4
ea34
edde
ec95
13db
f48d
ea5d
1306
eccf
0dfb
17fe
ebbd
0379
0d43
e4ed
0b23
f688
16d8
1330
0758
07fb
17ec
f274
1792
1536
031b
fa95
fc63
0463
ea70
13d2
1609
075b
eefb
f328
1621
fd83
168b
011d
0cff
e496
ead9
0334
fde4
efee
0398
016a
1021
1a2b
16d3
e319
fc85
f115
12e4
f46d
0d2f
e851
0f52
fc1d
fff4
f39e
fcd5
0aa7
0ffa
05ae
0b5d
f649
1719
ee94
e6ca
1172
ff9a
eede
f05d
f3d0
fe17
100d
ebed
edba
09fe
0b43
f44e
0839
e31b
fe05
fda7
fd80
09bc
0d40
0111
0eca
0e89
eef8
1074
fdae
e442
1530
ebfb
146e
16df
f1f3
ebdc
118b
0e0c
071f
0ef4
f1f3
fcf9
fb83
fd95
0d81
f76d
1aa4
025a
e494
0f9e
12fb
11bc
fd24
e698
fbb9
f1a4
1937
0025
ef45
ef33
fa30
ff2b
0fe4
fa62
ef80
085b
ff40
043a
ed90
ec6a
19d4
f098
1068
0802
1985
fdf8
0183
18d6
10ee
ef10
0959
f3ff
0467
f4ee
fe62
0915
013b
08dc
fbaf
168a
0090
1067
042b
eb90
e4e0
ed15
1bb9
19e1
e5ca
f6d4
f11c
edec
f869
1b96
f235
eed2
1754
f87a
140e
0553
14ca
0d72
110f
0efe
e9d1
e54d
0917
1705
e71f
e75d
f6d3
00d1
1127
e384
fdad
f54e
00a9
f2ef
0afd
f2f3
167b
f3fd
1c09
e3d4
0b20
f527
09eb
02b5
ee16
f5af
f7ca
0995
1313
1628
06f9
166a
ff8c
0c5f
004f
ec8a
fd81
1779
159f
1b44
fad1
e96c
16e3
17d2
0dba
0d29
e882
0141
f56f
18dd
eff5
e548
0119
0d88
13d9
f2df
f075
1a2b
0c0f
f2c1
fc30
14dd
0e47
1859
092b
f6c5
041a
10f6
0e37
f00c
ffb5
e5d7
06cf
e416
ee09
e7e1
1b34
eec1
1069
fe55
f512
e8dc
fa80
10b1
0aaf
f0d1
0e2e
040e
f67f
0c72
0ecd
f27d
e4e3
eedd
fd92
022a
ed76
0f1d
e9e4
f373
f85f
e752
1518
1a66
1ab8
ec63
0b22
f1d9
e941
0546
ecef
1160
ec9b
145d
064e
0b01
0085
ff76
0392
feab
f644
10bd
e9e6
fbb5
0dbc
00e0
f8f8
ed1a
f612
1114
ffe2
f6f4
fa3e
ff53
077c
ed48
03e1
14da
f3b6
0283
0db0
185b
094a
05d1
10fd
0073
eca6
f82a
09b6
0711
f728
02b7
17fa
1953
03d9
e866
fb11
1520
e3e9
141e
f38a
fd84
15f4
f7f5
f5b8
0c45
f6cd
ef60
e7ed
0384
1924
f662
02df
f092
ea07
179b
0f4b
eb47
1762
0c50
13fc
1ad2
f277
012d
0d6f
0139
e9a3
1cf7
eac5
06a9
ea61
feaa
01ed
0a80
e788
058a
fc15
1982
0d1f
1614
0103
e9a0
f19c
13ed
0ed5
1603
0eb0
f8ce
e70d
ec3e
0ce7
f02f
ea49
e5d3
e824
fb0b
f4d0
fa6c
f35f
05b4
f3ac
0b92
0c07
14d6
0fa3
2520
11a8
e621
fc84
f887
0a95
fece
e880
17a8
ed52
ecbd
0b71
1a32
0096
1005
0682
14bd
25be
03dd
e9d0
1011
df17
132d
0a43
11d4
0e40
0645
1345
113c
1e29
2460
fbd1
e4ce
e9a1
15ad
0a21
efa7
2579
efbb
071d
e86c
e41c
eaa1
09cb
0b0a
1138
ef1f
ed7e
0ca5
e472
fec4
092c
e848
f387
ddcb
134d
02e5
0566
ebf8
fa0e
f8e4
1b66
ee36
114a
1c1a
f384
ee77
ff34
f9d8
f601
0478
f305
eb84
0e25
0430
e6af
01e2
156c
ee81
07f5
106c
1942
f187
f100
05ad
e770
f0f2
1661
1a67
fb64
f69d
e95e
0258
078f
ecc8
f3df
00f9
0b9e
1698
e9c9
fc31
e5ee
f716
ff23
e401
e7cb
e3b9
f4d2
1468
f89c
fff4
0b2c
ed17
ea70
ea2b
f4d4
ede1
037f
f7ce
0a0e
0527
1023
f4ca
11ef
1325
f2af
f468
ff31
13c7
0cc9
11ee
f726
120e
1235
eb36
e958
fa12
0159
e696
eee3
0e06
fa58
0993
1095
ec48
017e
0c26
09bc
1a15
1242
02e9
07ca
1914
1a7c
19dc
e69d
ffd0
edbe
f2e0
12cb
0a9e
f3c8
002e
0c7b
f1cb
f85f
f6c2
06d0
f145
03e4
f9c4
055a
f6d5
f21e
1881
0bf9
196d
054f
11cd
1080
ea05
153d
09c5
e907
09c0
1afb
fb31
f8fd
176f
1839
18ed
01d0
e6ec
ff26
f921
18b1
0acc
fa5e
0ef4
eb50
ed5f
0db6
1145
e647
007a
11c7
f52a
e678
e8fa
1110
faeb
1513
fbbd
ed7f
0ceb
1370
f7de
ff79
18c2
0dd0
0fb8
1105
11a2
fb00
eaa3
ebd1
0d15
0008
fb05
0319
e57d
0ff6
1245
fd70
143f
084b
007e
0829
045f
0cce
fe3f
12f0
f931
07e4
f120
fc12
07f0
05c5
f2ff
0752
fd4c
0c3e
163c
ea16
10e8
0267
1858
05e9
028e
f0f5
1b8a
f8c7
ef2f
fa66
109c
f79f
e574
e964
f15d
fbbd
e588
fb0b
e74d
1769
0abe
e53d
0b81
fa8e
ed70
f24d
1738
0c1e
0b4e
f5ae
12df
011b
ff9a
eeca
ecda
e380
eef6
f142
0b1b
eec2
f2ac
0cc2
1894
fdee
0808
0c99
08d3
0f7f
0dbd
feb3
1b3c
0532
1902
e8db
f26d
fa0f
041d
0422
106c
fde7
fa98
1656
057b
0b39
159c
fa89
f02e
0707
e69c
19f9
0e52
0e84
0826
0735
0c68
0000
eacc
fb28
108f
1635
fa5c
146f
ee5c
18c4
0dd1
eaaf
fbd9
fe07
0e36
0931
e6b9
e932
15c7
e7c9
eeb8
fe83
f7fa
f7c9
f2ba
080f
ffca
ff04
140a
0074
ebfe
fb32
10f0
f2ca
0d4b
f66a
199f
fc57
f5c8
e55e
f79f
f8f2
147d
f3d9
09ed
06ca
065e
113b
fb0c
ff0d
166a
e502
f1cc
f550
f7a2
e94b
02f9
ef1f
00da
f808
ee34
04f3
f899
e823
ff1d
0504
eae0
1635
f117
f80b
111a
0f98
0b06
1aa0
f380
f3df
040e
f93b
1350
0b20
fc74
1914
e599
0f8f
f1b5
0c85
ee8a
f3f0
0686
e632
f8b5
18a4
f01b
efa3
0cc6
1708
18b8
0903
ee8c
f436
ff4c
1c10
098f
fd23
1b04
12a0
0117
f157
18bd
066f
fb4f
ef8d
109a
f1cc
ec08
02a8
f668
f680
06d7
f40a
f1ec
06e4
06cf
12b4
fee4
0313
ebac
e6c6
1a60
18e1
ffc5
fc2c
0dcc
0bc8
e993
ff65
1470
13a2
ee2c
03ec
074a
f311
0a9b
1079
158b
108a
066d
107b
1bcb
07b7
ec9d
ec0b
f707
fe6c
041b
0220
18d4
ebd0
eb94
f6f3
1810
fc60
14f9
e7d8
09b4
08ee
f735
0235
0d6a
0ffc
f6c7
fd4b
f420
1015
0cd9
ecf5
f486
f3b5
044b
18d0
f0d8
018a
1326
0e6a
e860
f52e
1112
0b56
f67d
fa8c
e740
11ca
00b4
fb22
0343
fb3d
e81f
fb5b
0e0e
f4c8
0b0d
075d
13fa
ef41
eb12
015f
fd11
e93b
f581
1c74
ec27
ec15
eda4
f69d
ee7a
e873
142e
0c4b
1511
1bde
17ba
0c11
fa8b
0e2c
ebb7
076b
f03c
f0d1
e8ef
edd1
0295
fdfc
e6e1
02d2
0a9f
1b6b
169a
f79b
0df2
e7cc
17fe
04cb
0f37
f216
ea86
ec64
1843
f922
e52a
13bf
0bc5
0b43
13c6
0944
ee84
f4c3
fc88
1a17
f8ac
eccd
191f
fe34
e6ad
1069
f5e1
1018
ed4a
0a59
edd3
06fe
03c9
068a
f133
fda5
efe4
e6b4
078b
1419
0cef
ec69
fade
f3eb
e329
efe2
f8b0
f7cc
01d7
105d
16d6
028e
1aef
e84c
e754
007d
1b9b
0451
1a1f
f368
eeda
e75a
11b3
ed9f
0a49
e9f4
faf0
0e7c
15e2
0902
15a5
1507
e816
f8b4
07a6
f126
0935
07fb
0a61
13a2
ed04
fd00
1524
01d1
1344
0849
0853
ea5a
0dab
040e
10b1
17c2
06cd
fef4
18dc
1bb8
015a
0811
0621
e31b
0bf2
f028
0d55
f838
e6cc
ecf0
072c
f41a
1230
f07c
0ce0
ed2d
0a7d
06cf
1a4b
ff82
0c21
ec92
1115
0cf5
f56d
f7bd
1c08
f21a
fcce
ec55
ea04
01fb
f571
f2c7
f058
f7ee
fec4
1547
e36d
ebe3
034c
13a6
1566
ebb2
f98b
1ad8
ec30
1249
0ab3
ee2d
e5ee
f13b
0e1f
0a08
ec4f
18c3
f9b7
00ce
f11f
1619
143e
ff31
ec12
e76c
0765
162c
e8dc
e435
0d41
ea1c
11cd
0d3f
0123
fe46
fd22
0067
e3fd
0f94
0a11
12aa
041c
0029
fe04
01cb
faee
e731
fa53
f578
ebbd
1893
02b4
e382
e64d
f6c1
e96f
e957
09b3
f67c
e3f5
eb9b
0657
1335
f527
19e1
e711
ed9c
0e19
f363
13cd
f42f
08cc
1637
f301
0759
f0ea
f8cd
0d3c
eb74
f554
0dd7
fc79
142c
0ae7
e3fc
e9c5
170b
f2cb
11a9
0a14
e77a
03dc
f2fc
10f4
09d4
125c
15f1
f3d4
ee40
eb90
f90c
0a05
136e
edb9
0ffa
f4a4
1136
09a5
18b5
f550
e448
f341
129c
0e88
0753
1420
faab
e4e0
1696
f33f
0e90
f244
eb60
fe18
f8d1
0b6d
fc76
e454
ec9b
0099
ec19
15f9
0ba2
e645
f3d2
0219
0b9b
0aec
02fc
ff85
14df
069e
f61b
1b08
fe73
f529
00b6
f93a
0488
02ad
f201
f94d
f7c7
f303
e7ff
1335
1110
0f11
117f
0fcb
f1e6
1480
151f
1398
f686
e37c
0758
16ec
fc81
f47a
e726
159d
1733
0a58
050a
f209
1000
f5cd
100c
f03a
0b10
056f
105d
0703
f73a
009f
e606
0462
1060
e8ae
0ba1
095a
f190
162d
fe9f
1e08
f721
f66c
0868
1877
f13c
f6b5
0c3e
e479
10b6
0ad0
0882
ff9f
0a9f
16bb
1242
0af5
104e
eec1
fc91
04c6
038b
eb25
1013
fb41
1da0
0364
0dd0
15d3
e814
15a6
0cf7
0444
fb71
f07d
14c7
f301
06fe
1ad7
f6b0
147c
0b0a
ef98
1ae0
0cdd
f5bf
f7e7
0107
e2bc
1b14
0bf7
f539
0318
0bbe
f8b1
03a1
ea6c
18cd
fbfc
e638
fc3c
f171
02ec
fa70
f9a8
edcb
0c76
ee2c
0c79
035f
fd91
f763
ec16
0370
099c
11fa
f16e
0f77
f946
fa25
0a72
f7df
069f
0749
11ec
132a
eecd
fb18
0856
197f
f2f5
03a2
e7b5
1bd0
056e
e8ff
05f2
1471
1b3e
065e
1938
f659
115f
1164
e894
ff59
156b
f6df
f9b3
f0af
fd0a
108c
082e
f398
e6cd
f713
f6d6
e70a
e58a
eb32
1d89
fa31
05fa
ec98
07db
f308
1767
0257
0a46
0a51
f0f1
f8a2
feb2
0417
1949
e5e8
eb25
fea6
17dd
f4ac
fdc0
16d7
ebf6
eb64
0210
0646
e6d7
173a
ff43
feff
16af
1c4b
102b
f24d
0577
f274
ec82
eec8
0530
0764
065d
f938
e795
fa41
f5eb
f7ee
1990
fe0d
12ba
12f9
0ee6
1b8a
019b
18f1
f70e
fa3b
e801
e5d6
eb6b
eda8
fc3f
1082
ee8f
18d2
fca0
03a6
e788
f9f1
0c67
f6e5
ee8c
0e3d
16fb
e9c1
0666
f6d0
05a3
18ca
f3b2
1370
fe55
1464
10d8
f978
f01f
f398
fe39
f37d
f576
efec
0d28
e332
f502
013c
f7a9
0335
e522
12a3
f7a9
f40c
e5ba
ed48
fdcd
0ba1
107b
f423
e5cf
0a77
f029
1b3c
0669
f476
f3d6
fe96
f1fd
ed78
fd4b
fd00
f108
0f66
1c56
1113
0561
e96e
fe15
e6eb
e81d
f415
e25c
0514
f9fe
16a0
f849
31eb
fd95
3d47
dd07
cade
28b4
c07e
cb01
f651
f95b
11fd
f9c3
da90
fc5e
dd17
2446
eede
0965
12b1
0567
0c1c
0267
e2cd
0f5c
da17
cf6e
11f9
2194
f973
30aa
2210
2d0c
c71a
1e07
e6e0
efdb
057f
0af9
d3c9
11d0
f1a0
0d40
d6bf
0e15
1ac0
07d2
ee61
ea5b
2d9d
bd5f
2feb
134f
dccd
e825
138e
276d
d8e0
1fd9
d08a
17e9
e427
f11a
139e
f275
fb8b
04e8
ff27
f182
0938
f609
019b
1738
1cb5
ff86
09b8
f39c
0bb1
e671
0cd9
18fd
e912
0122
0aab
fb6f
fd5f
02f6
191d
f91a
f93e
f8a2
eaca
0fb2
ed8f
0215
0478
ffe6
f02c
0c10
08b6
fcab
1a95
0815
0f0c
080c
fb3e
00f9
ec08
f76c
0a0a
e43c
fb69
f444
e331
078b
f59f
0cf1
0a05
0ef8
ecbf
0754
15ad
1121
03ba
fb12
fbac
155b
f398
e8f9
f880
0906
12fb
0d0c
eba0
f7dd
12a3
051f
f0ed
f703
1bb5
1539
ed20
03b3
fe36
fc5e
e914
f25a
f71f
f13e
f60f
f856
efea
ef13
0511
f059
0512
034e
faa2
e36e
edd3
083b
e481
e6d2
0cab
1746
016c
09cd
0667
1141
19e3
f5ae
f17d
e8fe
12e8
fa84
f051
04bb
eda0
f5a0
08e4
100c
16ad
082d
09ae
03de
12cc
f3d6
1449
ff7b
f5ab
1749
1a83
16ae
faf2
f8d8
0bf2
ee5b
ebe2
f696
feee
e2a7
0e1e
0766
1960
f515
ece2
f1bd
f4ec
0603
e6b3
f4a7
f0af
ff6d
f8de
08b1
1a5f
11df
0719
0a14
13a2
eb81
0738
00c9
f696
0a62
1d6c
ee54
ee00
19e6
08f5
fbd2
028a
106d
ffd2
1c86
f9ef
ec45
0ada
eb1a
08c9
1406
1659
fefb
f093
f2a9
fa9e
f5ba
f6d1
03f0
ef55
188e
0313
ea0e
124e
fbb7
f231
fc25
0bcd
eba8
ee6b
1c13
ed29
e91e
1173
0562
1a5b
0e73
ec0f
e7c2
ffa0
0a10
19b3
0766
f7ea
1921
e931
eb51
0a1f
e5b1
fbd9
191e
ea71
0a7b
1830
13ee
f937
0741
1aeb
1a8f
05f7
1b06
0b8b
ec13
f60e
15df
020a
f8df
174f
06d0
fff9
00cf
069b
07ab
1bfc
f1b9
046c
f272
fdb9
0b23
fcf1
ffe0
1806
16fb
ebef
12f5
f8d3
e957
040e
e99a
eacd
0810
111e
eb1f
0b77
fb55
e7b2
03fc
f88e
08ae
034f
e5ab
e5b3
0070
ff5e
ea17
1663
0cb6
f742
ff85
e620
020f
11fb
ef48
0df6
1b25
1a19
0b4c
1f59
1799
04cc
0cf9
0488
0779
f86a
f790
f233
100e
f74e
f570
ebac
f1d0
fb68
f3d7
1648
07f8
1c06
e5b3
ea07
fa4c
0108
ecec
115e
14f8
e6c7
1233
0717
0ef9
eebe
efc9
0e13
05ee
fa4e
03f9
0080
0533
14e0
13db
fe2b
02e6
0ee9
0c0e
0b9c
1c96
ef61
0ff6
03a8
09e3
ea0d
0190
0fb5
1935
1297
fd44
0328
0ba9
0331
f9af
0c2d
e39f
fc21
106e
e6e2
ff9a
0666
181a
fc8a
16b3
e315
1080
083a
f0b3
0e41
01d4
0dbc
f777
18a5
16c9
0496
fe98
0e19
fdee
eb08
f227
e715
f6de
e741
1961
0cee
15d1
180c
11ac
0eac
0246
f6d7
eefe
e98f
e962
ea1f
161e
0638
f51a
eaf9
008d
08a8
ee28
0da1
09e5
139f
046a
16ea
fc2e
097b
e7f5
fd1f
0998
154b
fa63
0fe4
17c3
17cf
126b
0383
0d13
ebe5
fbdc
0363
fad0
1c63
f845
e659
fd6f
f025
10c1
0b51
f53e
1661
165c
18e2
ee2b
0e27
1a08
1db8
097b
ec4d
eca1
0009
13a4
02db
f823
09a9
ef6f
e758
ec5c
0761
fc18
1cb9
065a
07fa
f198
0351
ed34
dfe9
ffe4
f52c
131a
1a7d
1201
037d
f5c6
fe3e
0ac3
0ed2
fd30
f617
f7b7
0149
0376
17b3
e988
031a
ee03
e8ac
00b4
1364
0ebe
f34e
1042
0792
e7e3
f700
fe83
1841
1b41
ea8d
125d
002a
004d
fd98
16e2
0059
ecbb
e9e2
137c
f381
e6a1
02e1
1267
0bcb
e447
eec2
078d
f33e
0ddc
f156
0caf
0612
f5e2
f0c1
1161
1c94
02e0
f515
f2cb
e807
f003
043f
18b9
f835
f11b
e841
fb65
11f4
0c0d
0f67
0437
0fee
e820
f418
ef88
eac0
fb18
0ca6
fee3
eaaa
ff1b
06af
198e
f13f
fc91
053c
f624
e9c9
0dad
ec2d
eb3e
e888
0677
0c42
f695
00ae
15d9
05fd
0295
1c28
14e2
f701
181f
e8a0
03ac
e6a0
1036
1087
f65a
e973
07bf
0cc5
059f
f7d7
f5ce
08c7
0bbb
ece8
0e22
08d5
f174
e7a6
f279
0b60
03e6
e921
f8ac
faee
f905
ee9e
172b
077b
ec64
1bd3
e1d4
06b6
15a9
09f6
f7b2
ef02
f936
16ac
e3f4
ee0d
1849
f0eb
eac9
ec88
11dd
1166
1aa5
00eb
13c9
1fd5
19bd
1a74
15ba
f6ef
f99f
f6d8
0995
0e4f
f361
0592
ebe5
180f
eee6
0893
ff92
f266
13b6
1495
f12c
0894
157a
ed7c
1715
176d
f1e4
09fd
1324
0661
f94b
0572
e7dc
0318
ee8b
11a1
16cc
0ba0
079f
132d
09e5
f342
161c
fe8f
f126
ed07
f15d
eca4
e9ca
11b1
f7a7
0c9b
f973
168f
1ae5
0d49
f100
0638
fbda
fe2c
f4e6
f0f2
f49f
0408
f7f4
fbf0
1298
ed6f
15e4
178e
081f
0948
fe0e
ed02
1941
0fd6
0d2d
034e
ea8f
f3e1
14e5
f4ce
089d
0b48
0122
e987
efa4
00aa
03c0
ef49
0105
e5cd
077b
ebb4
0d43
141e
165c
0ea5
fc58
f28f
137a
0fd7
eabe
07f1
cdaa
1c87
e8a2
dd4d
2492
ed29
12f6
07bd
d704
1720
1430
dd64
d5b0
1777
d2d5
2a47
10e1
0bb3
e0d4
e5ab
f6d7
0b6d
f8fb
1057
22ec
f92a
ee87
fd6d
2038
0b62
17f9
e479
d7d7
d3bc
2e50
f0c7
fdce
e010
1567
f537
dc57
04cf
0705
2296
e3ec
033f
ea62
088a
e2b4
f840
e5e8
318b
1fa6
ff78
188f
fa23
18f6
f2fb
f68a
ed23
1ef7
fb23
2aeb
13e9
fdb7
065b
f6a3
186b
ecde
fded
0c87
066d
f3b2
f258
ee91
f469
1388
f1bb
e61e
11aa
f772
ec03
0a2f
132d
e8c9
02fe
05b4
0f86
1652
0d9a
fe95
f770
054a
04b2
ea27
fd12
f22d
0147
0e57
f601
fc4a
e81e
1a72
e9e7
0018
0876
f006
182b
f50a
0576
0042
03d8
08d9
0fdb
0334
f9c1
f883
fbe3
ea47
1a49
e8f7
ed6a
f95c
0fa5
e72c
0d83
e71f
f4e3
0841
e7c9
07e1
1b74
f90d
f7f8
0a36
0356
ea06
e64a
e651
feb5
1986
fb28
00dc
fa3c
e87f
ffbf
e324
ec81
00bc
1be3
e9d8
e402
f24d
1c59
0e07
0e50
0775
1a06
f9ed
0101
f583
005e
f1cb
09cf
fa9c
f7f2
ec26
071b
10fa
fef9
f71c
0631
1564
ee10
1584
098c
0743
09d7
1652
1c93
ee89
f3c0
1904
18bf
fd94
f48c
0e15
172a
19e1
03ff
07a7
f7aa
e7ae
e43f
ea53
10f2
ffd3
f33b
e548
1245
0cfb
177d
e684
ec02
0ad6
f3c5
1511
f5fc
16a5
ece3
164e
e6d2
01f3
f520
06c4
f9fe
e959
fa50
fcd6
faec
ed8a
fe11
0aa7
06d7
ebf2
e56b
feeb
0082
18e1
14ed
14fe
1555
fd18
e994
0c45
f1a5
f14e
066c
fb17
0495
f163
fade
02e1
f4c0
0bde
eaaa
0d17
eb9b
0a24
01cc
0044
fdf6
f958
ec5e
f228
e70f
e4ba
f121
0553
e5e5
eca3
f0ed
0a83
1050
fe6f
ffac
07df
ee47
155e
f6ba
fb15
e822
0516
f5d4
1a23
f755
efc2
1a0b
ec95
f4fb
f400
ec55
ec31
1400
1022
e863
02b6
e4e2
fd98
016a
fb9b
e767
ff98
fdee
f62c
e8aa
1845
0942
1703
054e
05a6
e3c2
e9fc
f39f
0076
02b8
f409
fe3b
071a
ef9d
1202
0a93
e906
eac8
ee23
030b
f6fc
0474
0eca
fe4b
0278
fae5
12c5
0d37
1a8f
17da
18bf
fddd
f045
06da
f132
1cef
032d
13ef
ffb2
f31f
e58a
fdf5
fbf1
12c3
1656
eb49
f64f
f19a
f04a
e8df
f534
fb29
efa5
f748
ed7d
ed57
1020
1452
1b5a
160e
e9b2
13c0
00b4
fe36
ff12
ed3a
eb41
fb0f
ee0b
0d51
0e52
0e28
ee30
1432
fdeb
e79f
f3da
fdf9
e46a
fc57
13b6
0545
f1aa
03ca
f607
f3d6
f363
0295
067f
eb70
1305
ee06
0592
ffd1
0853
f51d
ef46
0365
f867
11e0
fb71
e6e2
f2a1
0c36
ea52
10ae
ffab
f068
f3c9
057e
f248
1a64
e512
edf5
0004
e35e
0931
0f84
f61d
0b1d
f200
f7e8
0a46
f63f
0884
fb73
056a
e589
162d
175f
1485
fa11
0acc
0792
f8c2
02ba
fac3
f42a
f511
0358
0898
0010
0d40
14dc
0a56
085a
e468
01a9
f455
0b44
f5a0
1869
f869
191c
0e38
f3a2
fe9d
f32b
ea1c
0e30
093a
030a
14d7
0f16
0ca2
0b1d
f912
e8fd
ea7c
0e83
f708
f488
0c18
f022
11b7
095d
0fbe
f603
e79e
015a
0d9a
f01c
0f1e
f9d8
f07e
f623
f792
130a
fdf6
18ba
02a3
1404
eaab
03b7
07a3
061b
0d52
ecd1
ef6f
fe01
ffbf
f663
f153
02ac
0a58
ecda
01de
fa69
ed72
fc02
f895
fcad
e7ab
f246
1639
0fd7
f08f
18bd
e772
159f
0779
0db9
1166
eee0
f615
eecd
fea0
1729
0e73
0462
106c
0f60
1774
eeb6
f145
fbe0
019a
1533
1288
fabb
ffa2
0170
ffc2
e8c9
f265
137e
02a6
faf5
fc44
0705
f337
f818
05a8
ef3c
fbf2
e948
f231
16a3
ff36
ec98
fbd3
0d9b
e55e
1260
0c43
14e5
1745
0125
e8e8
f68d
f382
eee9
ec3f
0522
0a4a
ef96
1a78
e484
0b6f
1962
162c
05db
e2a6
0a15
fdbf
02b3
fcf6
e5f6
f7db
e811
1a86
0dbc
e80d
fc10
f26c
e726
f263
ed21
0a58
eebd
ea69
f192
ed45
f5f2
f8e5
0254
f141
06b8
fad1
12c1
eb21
f3a3
0f25
f6b1
f032
ebdb
e540
fc8c
f57a
1209
05b7
fdec
0e5b
ea1b
042c
ed65
eb07
eb2a
f776
1841
e698
ec6e
f64a
002f
1904
13e5
1c05
07d5
181d
0f1f
16d8
1622
e7b2
0a6a
0ba2
072d
11c9
e972
19c4
0c5c
128f
19f8
1383
ee92
eb40
fbca
0142
011c
1080
f02a
102d
08d9
04dd
e8a4
ef37
e610
00b5
0abb
1133
101b
1ad7
02d1
ff23
032f
f9bb
1cba
095d
000e
02fe
f48a
06d9
ea51
1942
1305
f815
17df
ecb2
0e15
19bc
1b00
fe35
fc98
f59f
146c
e493
fc07
12be
f205
f706
e9fd
09f4
0d22
f86b
e7a8
f520
e613
f3bc
0e97
e297
0582
f376
1537
f5cd
00d4
fc8d
0e81
fa76
edb0
f0e4
0487
ea01
e9fd
ebff
fcbc
189a
0844
19c3
0b2b
1541
fba4
eb4c
e9f6
0f2d
f979
12cd
e8c2
f5c3
ea59
1712
fbbd
16fe
1da0
0739
0d0c
f8bc
fa05
eaad
fded
e841
1173
038f
0a87
f4c7
efd8
164a
08b5
f646
0a63
1913
08b2
f824
0bc2
ec63
ece5
167a
eba8
fcf6
0119
135a
0a01
fd2a
0886
0fce
00b4
0e4e
18a4
0dbd
f4c4
f698
ea2b
1ad3
f352
04b3
ef46
07df
0d9b
182f
f810
16e3
ee02
107c
0623
0082
f074
0a6d
03e4
f0b6
e91c
e643
0e9e
1458
04a4
f9c8
ec0e
e2bc
01f2
ec0b
e838
170e
1619
0493
174e
1707
e632
07fa
10b4
e879
07d4
15f5
f3df
ee00
f901
1a33
1552
179c
e681
f5dc
ec9f
1377
eff2
17c3
ea7a
0f1a
1968
0426
0e08
0176
ea67
fbbd
fe09
17f6
0e86
fac9
0134
184a
0712
feb8
1702
07c8
1441
f81b
06cb
1b0a
05b6
edbd
160a
005b
1a5c
1d62
16f9
18f0
f740
0783
1b9d
1568
0a56
f178
f209
f61b
e79c
e9ff
0302
1c9e
19f1
0479
f832
1698
f7aa
f561
0436
ffb3
105d
08af
f4f3
e5fd
eb47
f711
14df
08a4
e835
e882
01fc
1295
ff6c
0595
038a
16e8
fe63
ee7a
e213
1178
1b23
2586
08ea
f092
ea26
01a1
fb06
1da7
ea5c
10a9
1a59
1c6a
fc8f
fe29
e412
e592
effc
2632
05f5
03e4
104b
e023
eb2d
1166
e544
1985
0954
0c64
f1fb
f381
eb37
1ee9
1deb
0a89
eaf6
0d2c
1c84
0537
1e77
13b2
ef61
1b2a
e9d5
0c2c
ecfa
f31e
08e5
f9a6
e5c1
f227
fba7
f016
f44f
e836
1d33
e3bc
2185
1de6
16d9
009f
ef2e
e633
1842
eb81
0b87
0173
e6bd
03a6
edc7
107d
0ca9
1785
02aa
f24c
f883
f5f9
0afe
1217
edba
0d33
11a0
13e5
fd78
10f3
0210
00c5
183f
fcc5
15f4
f91e
16d4
f79f
ed80
1191
03dd
f762
fae7
1676
1280
036f
ef1c
f884
1222
f5f1
fbc6
141e
1067
ea57
023a
03c8
e217
09d1
f3ee
f9ed
0964
ecdd
ec27
047f
08a0
12fe
0abf
0b8a
1cde
eedc
f27e
e9f8
