1591
2024
ca9d
1d9b
fcd8
22d6
1a62
fe31
2493
f543
0a4d
e2af
ee7d
e67b
0d87
fb80
29d0
0c7f
eac6
148c
0c2f
f174
03e6
06f9
0d23
19e3
191b
0152
f1a8
fa94
ec13
dd52
e35e
d7dc
1ea8
fcee
e730
ece8
e35a
13ac
130a
165c
0eb2
fd40
f352
0d86
2483
fcf7
d6dd
f14e
2fbf
11bc
fdda
dbd4
e762
e6d5
e7dc
cdc1
fa86
1303
ec7b
d09f
52f1
1bde
e0cb
e1e0
1ac8
0d90
137e
12a0
e745
12e4
20b1
ffef
0060
1cd4
e44d
f460
2c9b
1675
d876
fca4
db16
3ec4
19c9
de78
ea56
2952
14b2
d812
0305
13d1
0550
25e1
f2f1
00f5
1643
fed9
053d
ffbf
1df4
e3cc
0f8f
20b5
ec00
ecac
f0a3
e21a
07cc
f789
eec6
ea46
eb4f
f7e3
141b
f8a8
cfba
04fd
f799
133e
0a17
0629
e478
169f
e541
f42e
17ee
03f3
df55
0780
f9d8
db8d
eb44
1873
10e8
f441
dbd6
2bc9
23ea
257b
0408
1fd4
102f
1232
f448
24f9
df7a
dfab
f767
1e5c
1f17
f3c8
11e6
066b
157d
dc83
017b
e277
10a9
d9c1
17d5
2375
25a4
f333
1ec4
ea05
e4e0
046e
0925
fb28
e02e
16cc
0ab9
e2bf
0ed4
f9d9
12e8
034f
061c
2422
169c
0472
8f8d
df3f
0b09
2027
03d7
20e5
1175
0307
de5b
d8a1
